/**
  ******************************************************************************
  * @file    small_model_data_params.c
  * @author  AST Embedded Analytics Research Platform
  * @date    Tue Oct 18 20:27:26 2022
  * @brief   AI Tool Automatic Code Generator for Embedded NN computing
  ******************************************************************************
  * Copyright (c) 2022 STMicroelectronics.
  * All rights reserved.
  *
  * This software is licensed under terms that can be found in the LICENSE file
  * in the root directory of this software component.
  * If no LICENSE file comes with this software, it is provided AS-IS.
  ******************************************************************************
  */

#include "small_model_data_params.h"


/**  Activations Section  ****************************************************/
ai_handle g_small_model_activations_table[1 + 2] = {
  AI_HANDLE_PTR(AI_MAGIC_MARKER),
  AI_HANDLE_PTR(NULL),
  AI_HANDLE_PTR(AI_MAGIC_MARKER),
};




/**  Weights Section  ********************************************************/
AI_ALIGNED(32)
const ai_u64 s_small_model_weights_array_u64[44161] = {
  0x3d37ce77bd35ec85U, 0xbdd3a5f73df73279U, 0xbd552c0cbe1d6414U, 0x3df9efd93d9760a1U,
  0xbd3f9b62bdba8461U, 0x3e39ac24bd710301U, 0xbd3bc86abe28a4c9U, 0x3dbb6aefbe174c96U,
  0xbc2fc0a43db8956fU, 0xbde85cb73ddbe64eU, 0x3d90c2503c9c0571U, 0x3e018686be02e982U,
  0x3e0a34173d85ea14U, 0xbd3a9af6bd1dc7d7U, 0xbd22f1293bb36e44U, 0x3e270c9d3d8e5c14U,
  0xbb87fe493e1d2ee4U, 0x3db253973e14be10U, 0x3c9e73f9bbbe8713U, 0x3d6e6e86be100196U,
  0xbd746b873bc2ec84U, 0xbdc2c55b3da990e5U, 0xbd4f53ad3d5db387U, 0xbdd681433d4f445bU,
  0xbe440997be0d631bU, 0xbd552a333c89bde4U, 0x3d4072b7bcc8880dU, 0x3d1c164e3d90aa90U,
  0xbdc72c2cbdf60eceU, 0xbc1849743dd6eef7U, 0xbb6996553dbc5da2U, 0xbbf82f9cbc43f4d8U,
  0x3d563776bc625671U, 0x3c55bba6be658bdcU, 0x3d18333abc51c621U, 0xbe3331783e4fc832U,
  0xbcc15deabe0a2213U, 0xbe54688b3e84fe79U, 0xbe375397bc9bdf00U, 0x3e2bbf183d182419U,
  0x3df3df5cbe118c8fU, 0xbdae6081bcbcb70cU, 0xbdd81b29be1b308bU, 0xbc9e407a3d880281U,
  0xbe00f86d3dff5e8bU, 0x3e3bb1fe3de45d53U, 0xbdac87153d4f18a0U, 0xbd57b990be00b85dU,
  0x3d0e656cbd877e6dU, 0x3d9cb5c0be00dab7U, 0x3df5811d3e44fbd9U, 0xbe3da4203d487db4U,
  0xbd7e0d883dfd94b5U, 0xbcf675e9bd5c0e89U, 0x3d4626573ddf5221U, 0xbe60c6cebd4706a1U,
  0xbd64005dbd92491cU, 0xbdad15abbe2c92ccU, 0x3d6cc8143d4daf83U, 0xbd7ae1243e3a60e7U,
  0xbe09e2f8be279dedU, 0xbe1064b4bdcb8929U, 0xbdc88aefbd084477U, 0x3dff5f593e2174c2U,
  0xbd648b6ebdc0dbddU, 0x3ba572f13deea421U, 0x3b3936063a5a01c4U, 0x3c5b15203d261a79U,
  0x3d90a599bcf7e416U, 0xbe142b32bcc64f0aU, 0x3de0114bbe764524U, 0x3e5c1a633cf671faU,
  0xbb095dc9bdb29a57U, 0xbc2f63c7be4be156U, 0xbe45cb083ba03207U, 0xbe32e14e3ae47b14U,
  0x3dbd5a4ebddb9d99U, 0x3cab919cbdc970c8U, 0xbe42cb0f3dcf677dU, 0xbd682a47bdc7928aU,
  0xbdd85d82bd3609e0U, 0xbd9f7065be0a6e56U, 0xbbd63e2abe89c409U, 0xbdd04fe83dbb7e3cU,
  0xbdab06d43dffa602U, 0xbd96290f3cefd8daU, 0xbe07e7fa3d76b500U, 0x3e3614473e09079aU,
  0x3deed7adbe4a13dcU, 0xbdbe91a53d476971U, 0x3e19393cbe77dd26U, 0xbd79d2c6be895da9U,
  0xbe2c69de3df3aa3eU, 0x3d7ad1613b6559e8U, 0xbdd875eabd1d3fc5U, 0xbd4525a73e385afbU,
  0xbb9593b5be11f3a6U, 0x3b2bb436be4f5deaU, 0xbe248e6e3da629e0U, 0x3e1eef62be3c2c62U,
  0x3da39a203d92461aU, 0xbe70312f3e293af9U, 0xbd6b184c3d0ed31eU, 0xbe016ad73d9c8545U,
  0xbd9daa273e118d61U, 0x3dfec94fbdbbe47aU, 0xbcec7b67be087838U, 0x3d926b8ebd7a2742U,
  0xbd9607983cf42b94U, 0xbd97a597bda0ab22U, 0xbcb873a2be082b8bU, 0xbe04f09e3d87cff8U,
  0xbd88c3953dfb9583U, 0x3e1722cabcf077fbU, 0xbdb0079b3cb3b8e4U, 0x3de28b4e3d8c3bf1U,
  0x3ddbf5ccbd9b9330U, 0xbdc706a33d911d71U, 0xbd02284e3e4db499U, 0x3dcb771c3dac5c88U,
  0x3cda3a75bd8adcb1U, 0xbd6e51153dafb8b0U, 0x3dd070f4bdab8d11U, 0xbca9aa71bc0317b5U,
  0x3d1012e03cd10d6bU, 0x3d853323bd1032d3U, 0xbcfcf7713d32165bU, 0xbe0800a4bd477a74U,
  0x3bc4cb64bc5de840U, 0xbe0327b7bdebb0f5U, 0xbda74a613e0cfdf3U, 0xbd81543dbde3d97fU,
  0xbdcc670fbde9f22eU, 0xbdb293edbda62843U, 0xbbe5d7afbdb70081U, 0x3b985ebe3cd050a8U,
  0x3b99a9b7bdf950cbU, 0xbd3cbdf2be1e2254U, 0xbab122db3e1f436cU, 0xbdc7b4c83d571f39U,
  0x3d1c16343dbb8b67U, 0xbe8bdce33df883a0U, 0x3d2061723dd3c2c1U, 0x3d4980b63e042c91U,
  0xbd8bf0a43de77dbfU, 0x3d84d1ddbd038fe5U, 0xbdd9c475be481a7cU, 0x3debd7dcbc9f3319U,
  0x3da3e1fdbc9b1556U, 0x3d9fae08be010ae9U, 0xbe2937823d762d01U, 0x3e1f3b183d59afeaU,
  0xbd5ff941bd50c939U, 0xbdf1ee703dab9c9aU, 0x3e0c16f2bd01314aU, 0xbd8d0822bdbdf992U,
  0x3c529c4d3d0175c5U, 0x3db796d0bde601a5U, 0x3d42b40ebd9caf3eU, 0xbdb1c3ab3d8506d2U,
  0x3e058ef73b83bedcU, 0x3c2ea9a0bd20a5d9U, 0xbdef87bd3d8feed7U, 0x3b3413453ea0208cU,
  0x3e283865bdbe6dddU, 0xbd26a1293d897ff6U, 0x3d47a9c03d4a751bU, 0x3e3dd7dbbe500fbeU,
  0x39e315bcbc88ca7eU, 0x3c70b1243e89af60U, 0x3d9592a3be340863U, 0xbd6d4e7fbc69910bU,
  0xbd1e49fc3cd2cfe6U, 0x3e622a25bdd63b0dU, 0xbdc0a0163c2b8f98U, 0x3d5c5fcbbdfd4c88U,
  0x3da5ef68bd82c96cU, 0x3e0b0d15be2d5958U, 0x3be011aabd52822cU, 0xbd89da9f3dd95a43U,
  0x3dee8541be21ca4eU, 0x3c1ec1673df09c51U, 0xbdb32e263dcb250aU, 0x3e06f95e3ddf1ca1U,
  0x3cf37715be2c383fU, 0xbd155adc3d96d449U, 0x3c535ae53cb0ad5dU, 0x3d6e762f3d36b860U,
  0xbdb4efd33dd9403dU, 0x3e118ac13e2ff369U, 0xbe7aa00dbe171be4U, 0xbd64b378be1594abU,
  0xbbada50f3c9b8803U, 0x3e08876cbcf2a81bU, 0xbe264c923df54f11U, 0xbdfd0dc5be04734bU,
  0xbde96a193dab018aU, 0xbdbe6561bd2543ccU, 0x3da5dd7f3d0d7e8aU, 0xbccbf0fabd2c2486U,
  0xbe2023a93d854661U, 0xbd6140b0bcb569d1U, 0xbe0a67073c402717U, 0x3e8b7d11be053badU,
  0x3decf8c5be81bec2U, 0xbc6f365c3dff368aU, 0x3bf70aa83cd675d8U, 0xbd5d8a91be46869eU,
  0xbe6532843e6b866aU, 0x3e5c2a9ebc99e001U, 0x3cea53aabe3b77b2U, 0xbe853cd03e0832fbU,
  0x3e8ff47dbd22d6d4U, 0xbddfdd07be28b269U, 0xbccaa1c33e73f137U, 0x3dcd9e3bbd92c9bfU,
  0x3dbe5c8dbcabedb3U, 0xbe36ef2dbdd46edbU, 0xbe96f7bcbd7c0cb5U, 0x3d8f676d3c8e08aaU,
  0x3e028d253e0ac77eU, 0xbd5591f0bd87f1beU, 0x3d8d59a8be38347eU, 0xbcc570b0be8c3458U,
  0xbda186d2bd98e28fU, 0x3d8a56083d783706U, 0x3d57590cbe2bcaa5U, 0xbe855725be17e385U,
  0x3dceb29fbd947e5bU, 0x3de3e37d3c29b9a5U, 0x3d2449f5bd2e571eU, 0xbe2d9b9ebc8892d2U,
  0x3d76e9b23d06c86cU, 0x3c6edf0ebe056f3cU, 0x3e115c283cb54d4dU, 0x3e04127c3cc6e6dbU,
  0xbd17a28d3dcc308eU, 0xbe695f383dfc8745U, 0xbdcce8b0bc00749dU, 0xba897db83e106af3U,
  0xbd3fbe16bd325aeaU, 0xbd248d6d3d992581U, 0x3d1cafe4be3a8862U, 0xbd5846ab3d85f146U,
  0x3db0eebe3d34239fU, 0x3d02d4d2bdcdf08cU, 0xbda3dddf3d4a7a7aU, 0x3dfa92a03c8619ecU,
  0x3dc26254be155051U, 0x3d4333b43d464acaU, 0x3e03248ebcaeb44fU, 0xbdad4a2e3dbc0a39U,
  0xbdc083313dac20bbU, 0x3dae3964ba890c4aU, 0x3e05df16be1d4f60U, 0xbd99b1963dd7753fU,
  0xbe15beae3d78570cU, 0x3e0acea8bdc532b5U, 0x3db553fdbe6f086cU, 0x3d68f11abd22e89dU,
  0xbd8747793e2140e0U, 0x3dfd1799bdb501e3U, 0xbe18ba55bd77fc21U, 0xbceda1723decaec1U,
  0x3d9ecc3e3e5d5b38U, 0x3d3b705abe051729U, 0x3d312d6fbd8f7df2U, 0xbda5560ebe48b457U,
  0x3c972eb4be0b0e37U, 0xbdce120c3e4e1cd6U, 0x3e4f5b053dc6c710U, 0x3d95623ebe1c4aa1U,
  0xbe01726c3e31db8dU, 0xbe3ddea7be29596fU, 0x3e4a2fe93d4e514aU, 0xbe5a15893e5d18a6U,
  0x3df072bfbdc3c501U, 0xbe700929bc65acfbU, 0x3e0f8565be51ec3eU, 0x3d1e9b9e3d8faa48U,
  0x3d815ff4bde24aefU, 0xbc52aa11bd65bd81U, 0xbd8cfc8cbe81f613U, 0xbd9b4955bddfc085U,
  0xbe673aae3e2d2ce5U, 0x3d40bba13bb9973eU, 0xbbdb1487be59375eU, 0x3e3194073d8a885eU,
  0x3dd864b8bd7a1c5eU, 0xbd9baf33be3ab3ccU, 0xbe3c71413d0e9b4cU, 0xbd15568bbe18d47fU,
  0x3e03d1543c173b63U, 0xbe5180363d91502cU, 0x3dbd2ea93d995f93U, 0x3d84fd5dbe97c9acU,
  0x3e26aa3ebdd3750fU, 0x3e08615cbd6cd086U, 0xbd8be5403c41007bU, 0xbdcc16fb3bbbe2deU,
  0x3ddb4395bd605aa5U, 0xbdbd1bc3bde33f29U, 0x3d264ef23e02ddd3U, 0x3df8b6e73cbb80aaU,
  0xbe600551bd812633U, 0xbe69705cbdabc724U, 0x3d0858b5bd0bd94fU, 0x3cc0586fbb5929ebU,
  0xbc65b8e53dbad7a8U, 0x3de1b9dfbd8c44dbU, 0xbdaa20ecbe3b8960U, 0x3c3ffb51bde18c37U,
  0x3dbe02723e2baf51U, 0xbd67e8ddbcd6ad55U, 0xbdf80c413bc82078U, 0xbd9af5a23b809896U,
  0xbcad1713bc95bd16U, 0x3d9fc8413be5715fU, 0xbd4f3972bd33c88eU, 0xbd46b19d3d834ff6U,
  0x3e40d0c33e38fd6eU, 0xbdc270dabd8498acU, 0x3dc67167bdc210d8U, 0xbd83708bbe34e6ecU,
  0x3dc971883e110a88U, 0x3d8688be3dcd0c2aU, 0x3e19c9403c50176dU, 0x3c96d0fbbd6defc2U,
  0x3db69b4cbcf8e4e3U, 0x3e275f6abd9a7959U, 0xbcdd1500bdd942ceU, 0xbe026299bd29e8c7U,
  0x3d9ce4263aad8163U, 0x3d64fc193c8eb3ffU, 0x39352fce3bd6babbU, 0xbe0099e0bceda497U,
  0xbe1ed6423b9fd17cU, 0x3d1f5f73bdb732d6U, 0xbe1a67413d69b6dfU, 0x3c3594143e0f2729U,
  0x3d998168be7791b7U, 0xbe8f96f93dbb7687U, 0x3d1b94b7bbdd2a70U, 0xbd62a48abda64ce2U,
  0xbde3152b3e33c627U, 0xbdc13065be11b245U, 0x3de583ccbebafdcaU, 0xbdf0df59bd59fb03U,
  0xbcf0bf483d6f4524U, 0xbe2729b3be70e26cU, 0xbebcf8fb3d28adb2U, 0xbd0a95ecbd8e4731U,
  0xbe197e3abda5593dU, 0x3e43e786bd779854U, 0xbd0e48abbd180477U, 0x3dafe83c3e2b610cU,
  0x3d53da29bdd37735U, 0xbdb25fdfbd166655U, 0xbdf52384bd6b998cU, 0x3df5719fbce2b523U,
  0xbddc0428bdf5fa1eU, 0xbdbc7e5d3dda0f11U, 0x3dc795253e0c8a0aU, 0x3deddd7abcb20908U,
  0xbe16c46a3e323ce8U, 0xbd8a91d7bd833a93U, 0x3e07b6c6bdf3a4d3U, 0xbc3f2278be49830dU,
  0xbddf04153d0158cfU, 0xbd4ed350bd5a88e2U, 0xbd20d9f23cfb7391U, 0xbd273e193d989217U,
  0x3e07962fbd509902U, 0xbe4531c2be2be3d1U, 0xbe0e8f1b3e321c82U, 0x3d461e683d4602d2U,
  0x3d8d825bbe62bab9U, 0xbe338afe3d2f47a7U, 0xbe40d88b3dd82e0fU, 0x3e024c84bdd100dcU,
  0x3e0464ae3e183f00U, 0xbe0e1f0dbbd07183U, 0xbd9dd158be44408cU, 0x3aa19af6be3b8c13U,
  0x3e3584adbdc22409U, 0xbc419db73df8cc26U, 0xbcfba88cbe29eef3U, 0xbde7a0963dbbb70aU,
  0x3da473f1be1b2452U, 0x3bd1d7893d8daa47U, 0x3d732b1bbd2b9a61U, 0xbdc699cbbd37ceedU,
  0x3d14e1993d3125bbU, 0xbe01d7ad3da9ad55U, 0x3e317bb23d052873U, 0x3e490e91be752f2dU,
  0x3bcd1ddb3d3d5b45U, 0x3d81eb1d3ddc2b38U, 0xbda69969bd4e856eU, 0xbe28fceb3d32345bU,
  0xbdb131fdbccdf103U, 0xbdb08e4c3de1d0e3U, 0xbe3698f23e0d3f03U, 0x3dd56ea2bd8f71adU,
  0xbdb53979bddab8a0U, 0xbd736d31bd68d78aU, 0xbd18dc02bd9d1bbdU, 0xbd5d2d6bbe01624bU,
  0x3e1b64df3da771d7U, 0xbce211e1bdd40c5cU, 0xbd46756b3d9e271aU, 0xbe0e01cabe4d6b44U,
  0x3e5476313da176e6U, 0xbe2afc063e01bc57U, 0xbcc3cc1cbdff2856U, 0xbe5fe72abcfb0b31U,
  0xbdb757aabe2cfba1U, 0x3e5cc7733e1245adU, 0xbd4265c2bd13756dU, 0x3dc68135be5ceda3U,
  0x3d611120bd704187U, 0x3ddbafe33e859f14U, 0xbd4f6b17be35c19bU, 0xbe2e3edb3e170a67U,
  0x3da2a2c93b639984U, 0x3e95fbf53c177007U, 0xbe2c2f7d3dec6225U, 0xbb2ff3dd3dccd2baU,
  0x3e594672be0d3847U, 0xbdf55bed3cc99b47U, 0xbd711035bd67095fU, 0x3db19158bdc176ebU,
  0xbd60cd80bd117374U, 0xbd4a4a843b92ef04U, 0x3dc2d85dbb72129eU, 0x3acadf89bbcad073U,
  0xbcdd7c6bbd7b89c5U, 0x3af98654bc573510U, 0xbe227a03bd646eb9U, 0x3d97a92cbcd02042U,
  0xbcf4f73f3d7cf986U, 0x3ce41141bda6cfccU, 0xbae63e8fbd74d436U, 0x3ccd51b83c1eed17U,
  0x3cf525f6bdc01175U, 0x3d3c4b2b3d457fe2U, 0x3d3822eabd240e86U, 0xbd6bf392bcf0e6e9U,
  0xbd910d72bd7cccb6U, 0x3e520fa3be278e5dU, 0x3bdbf8553ce9aaddU, 0x3daf4ee0bd881999U,
  0xbdb37351bdacc5a0U, 0x3d845125bdf1565cU, 0xbd4567a4bd5d070bU, 0xbdd517a43d27c593U,
  0x3ddc4a7ebdf5eeafU, 0x3ce8654a3ba03744U, 0x3dfefda33e0b5e95U, 0x3c8a4f06bdc2baaeU,
  0xbd2f7b31bdafaa91U, 0x3d04becb3b9e065eU, 0x3de494553cc605b5U, 0x3d9c304ebd45fdd6U,
  0xbdca382cbdcbd11aU, 0xbd37a16bbdf652f0U, 0x3c816a7fbd9cc330U, 0xbd731ea2bca33a78U,
  0x3da350b5bad1630fU, 0x3e0b2abdbd854f26U, 0xbb82d6413c6f81acU, 0xbca6d1eebd6d60c2U,
  0x3c98dc96bcc71c82U, 0xbe0107f6bd376fc3U, 0x3cb554eabdb70a82U, 0x3db0eb65be12d215U,
  0xbcf1ae67bd490b32U, 0xbe0c6b903d0cc208U, 0x3cb242fd3d83adf3U, 0x3c3e2a4fbd94ec1eU,
  0xbcfb0a3dbd05f3ffU, 0xbe216293be0b7bf1U, 0x3bd95839bd378cddU, 0xbd31771fbbe6da13U,
  0xbc84afe33d3fde7eU, 0x3e152e993e00ec7aU, 0xbd0036b63c5b2074U, 0xbc8012883cdf79dbU,
  0xbdd9dc94bc899491U, 0xbdcd0a793db2288cU, 0xbde8cb91bcbbb6a8U, 0x3c878f36bdfa3549U,
  0x3d3e181abd9e438aU, 0xbc397f123d48979fU, 0x3cc2b9afbdc3ef47U, 0xbbefc3203a73af29U,
  0xbd864a39bdcce3daU, 0x3dae32f7bc854709U, 0xbd54ce483d8c91beU, 0x3cc5a48dbb74b83bU,
  0x3db9945c3d1ed1d7U, 0xbc7b2f46bdd579c3U, 0x3d920d05bdaf9f17U, 0x3d49df25bbddf92cU,
  0x3d8f052bbbca6869U, 0x3ba07ea2bb0e2a03U, 0x3d05aea0bd3bb5e9U, 0x3cae73cd3a85a76bU,
  0xbc3df3d4bd056b96U, 0x3d1cb8bf3e040a27U, 0x3da97315bc880f26U, 0x3c4601ebbd6686d0U,
  0xbbbd6bdfbc1bcf18U, 0xbdb8c774be279de1U, 0x3cebff9dbe251868U, 0x3d0ef05fbe28c3efU,
  0x3da6eee23bb9a891U, 0x3dac8967bb300fb0U, 0xbe271e5ebbb3d101U, 0xbd7d8821bda9a653U,
  0xbd1721c9be340080U, 0xbdeebac2bda8d73fU, 0xbcdacd1ebe092e4dU, 0xbda88fe3bbefb7d2U,
  0xbd7a8252bdaad139U, 0xbd7802c63e0a6104U, 0x3d69f047bce9abf4U, 0x3d0068a1bcea118aU,
  0xbd88953f3d3fe123U, 0xbd6e36c5be1746adU, 0x3d404204bdf12d59U, 0xbcf8551abd740b0dU,
  0xbd6b6da2be05f5c2U, 0x3d53ab623d52a663U, 0xbdb26a9abd8ec652U, 0xbd65f9dcbdd5b818U,
  0x3d21137fbd4680baU, 0xbd93595c3d0dcd8fU, 0xbde4f14dbd45ab87U, 0xbd5822f0be0d29b3U,
  0xbe2b308fbe182ab7U, 0xbdc8643cbbea3470U, 0x3e262a82bc5c013bU, 0x3e1370e1bdc28a9fU,
  0xbca5e071bdbd1ee6U, 0x3d846379bdd0173aU, 0x3c22f4383dafa0c5U, 0xbd4bf59ebd7e759cU,
  0x3bec8c813cd2e69dU, 0x3db5aac5bd8bbeabU, 0xbdd477853d5d7861U, 0xbd2032313deb78e3U,
  0xbd953a933d7d2756U, 0xbc31fa943d95bb76U, 0x3dbe7c37bcab3844U, 0x3d98ed35bdcb6580U,
  0xbbbbac74bde9d2b0U, 0x3d854b8c3d0b7d04U, 0x3d38c08dbd88e28cU, 0x3d8bde13bd1a9a2aU,
  0xbe025bd2bcebc3e5U, 0xbdcaa47c3caf0c09U, 0x3bbfa99e3cdce59eU, 0x3d4f068fbd5dd8b5U,
  0xbd01b4d1bd0823e2U, 0x3d300bbcbd99439eU, 0xbd4de87dbc1ce58cU, 0xbc7d390ebca76372U,
  0x3da3749d3d2c6496U, 0xbd9fc456bccd9882U, 0xbe26b649bced67b7U, 0xbd64e9923d038b8dU,
  0xbcf96ed6bd15b5feU, 0xbb2626f33d9fa7f6U, 0x3c7560d33d679915U, 0x3daf554e3c13df98U,
  0xbe1557043c5b61f8U, 0x3d6a6a013bf7cde7U, 0xbc1de581bd5eba99U, 0xbe087e8f3ce58fbfU,
  0x3d9a7bc23d7e81a2U, 0x3df497af3d82d4c9U, 0xbd53b5c4bd8e7e9fU, 0x3d231d273d9347a6U,
  0xbc59869ebe367f4aU, 0xbdb3fd34bd8b0706U, 0xbd69cf44bcb23b17U, 0x3cb9eadabd99c9f2U,
  0xbd9f7d76bdf4fb2dU, 0xbd4451c1bd374d8eU, 0x3dfcd8ed3d565d03U, 0x3a5b936abc30898dU,
  0x3dfa71113ddfb0caU, 0x3c310257bde8d26eU, 0x3d942959bd79f565U, 0xbde007593ce97debU,
  0xbdc6f1c3ba029e57U, 0xbd215d7f3cd026a8U, 0xbe0a74bb3d0154b6U, 0x3c347a65be136205U,
  0xbd354da2bd1a4960U, 0xbd91aa59bdc2a754U, 0x3dbe8733bd0e2470U, 0xbdcbc1b5bd7cb568U,
  0x3daf27fc3dd6b12cU, 0xbd6f89a9bd0cf383U, 0xbde463b3bdb370d7U, 0xbdc0cfc23de38868U,
  0x3dbedf5a3ccf5677U, 0xbd4664e13d24da57U, 0xbc705f76be01fb9bU, 0x3ad2c4f8bd4a2340U,
  0xbd0b3ac03cb8200eU, 0x3dd27de63d925230U, 0x3dcac721bdbc9d19U, 0x3c16f8663d529bb3U,
  0x3b92b2b9bdd2e6f9U, 0x3d7506e43d25fde3U, 0xbccdeebdbd7f7cb5U, 0x3d9b622abb139cb3U,
  0x3c80d55c3d0b602bU, 0x3ccef1f83cb43dcfU, 0x3c689f723ca07b44U, 0xbb9b11783da0212eU,
  0xbdc646dfbd94bee4U, 0x3c6c24cf3c7761dbU, 0x3d53ff58bdcdefa8U, 0xbd92dd783d523bdaU,
  0xba7cd1dabc7368fcU, 0x3e1187bb3d85a410U, 0x3c9246d2bd88a4c3U, 0x3d5dd67cbdb2c1b0U,
  0x3d8639fc3d28d286U, 0xbdb42666bda2f92dU, 0x3aef0ed73df2bee7U, 0xbc023da23d4c4c40U,
  0x3cc8de083d017f6fU, 0x3d579885bcd2eba4U, 0x3d976c7c3c83f9adU, 0x3d261aa3bd38c316U,
  0xbd50529cbdc39a43U, 0x3dfa5b0cbdd5df62U, 0x3cea6a2b3d9b4486U, 0x3aa894efbd78f2eeU,
  0x3dae7ba0be2c9a03U, 0xbdb5342fbe113ef0U, 0xbe25584c3cfb8bd7U, 0x3d70a195bc241c61U,
  0x3d093ae13cc8ad04U, 0xbd953716bd4802caU, 0x3d69f38fbcbe1e54U, 0x3bf88f82bd8d6021U,
  0xbd7c65aa3e07ac0cU, 0xbe145d423d451ae3U, 0xbd5457c7bd6cf26aU, 0xbdf0598cbe301a78U,
  0x3cfc19633dea221fU, 0xbd951f12bbb11f75U, 0x3d66030cbd08e713U, 0xbc0b41133df171dcU,
  0x3dba552b3d803842U, 0x3cac9d3f3bd170eeU, 0x3d90432bbd9b0f4fU, 0xbcfade10bdeab4e9U,
  0xbcb608eabe45a957U, 0x3db6b118bdb21e8dU, 0xbdb34a28be431540U, 0x3d13c769bd0dfe30U,
  0xbce0e7f2bd725260U, 0x3d7dc7a4bd91261aU, 0xbd7c84713e136737U, 0x3c91d7163df9e940U,
  0xbc93bd5dbd2426bbU, 0x3d2690c63c81fbf4U, 0x3d5259103cd4cb9bU, 0x3b3b43213c96e2beU,
  0x3dc4cb65bde2b86fU, 0x3e25973c3d722856U, 0xbd83ea4dbd9844b7U, 0xbade9f2a3c5aa546U,
  0xbc9e56ee3e06a45dU, 0xbdf8f2003ddeef69U, 0xbda8be7c3e103c67U, 0x3d997c26bd8f1698U,
  0x3cb479b4bc0e7e2cU, 0xbdee019bbdb4fc73U, 0xbd28a33fbcad94ffU, 0xbd1b892cbc0898c2U,
  0xbd5bb57ebe41607cU, 0x3e1266febe3361e4U, 0xbd7c1b0e3e3530cbU, 0x3d412c99be218addU,
  0x3c7282dabdad1a37U, 0xbc8f1f24be377a8aU, 0xbe6001a7be0b9fd0U, 0xbd4f3a7b3d621fabU,
  0xbc9e4dfc3c4767b1U, 0xbe014ca0bcd564f6U, 0x3dbb09063d391ad9U, 0xbd398c443c1578b1U,
  0xbe0394c13ddcdf19U, 0xbe288145bde87dc6U, 0xbd95e6a33d4f09e7U, 0xbe0f5079bcbb039fU,
  0xbd0a575f3d90e5d6U, 0xbd22bf14bd3e1a85U, 0xbdf72612be0dca6bU, 0xbe14d3883a757857U,
  0xbdd39180bd5ca5e9U, 0xbd49373fbca6c0beU, 0x3cf06b0ebde53570U, 0x3d6459c2bde75f20U,
  0xbe435f88be352cc4U, 0x3de5828fbd4eccc2U, 0xbd9db268bdecd5efU, 0xbca94d7dbe0b8879U,
  0x3d8359f5bdb5b0a2U, 0x3d973f88bde2e1d2U, 0xbd8cbf583e0ce5b1U, 0xbcf4831f3e2f85dfU,
  0xbb6ea99b3cb36468U, 0x3ddda09c3cd141afU, 0xbcd466e23d8563cdU, 0xbd9332ddbc65e8bcU,
  0xbdc824b1bc12fe95U, 0x3c24d4ec3dc3f8a8U, 0xbdce6f8abd773172U, 0xbbebb75f3da02c20U,
  0x3d30be75bce93a36U, 0x3d80ad8d3db5bcc8U, 0xbd5b73d13c2bdd73U, 0x3d1fb78bbe06b0cbU,
  0x3c900fd23c496973U, 0xbc96a056bc788e3cU, 0x3d08de12bde67d79U, 0xbda85dbf3bf68dbfU,
  0xbcb0c3b63dd0b902U, 0x3ccffdaa3cd44725U, 0xbd9068e7bdcb3418U, 0xbd5eb95cbdac886cU,
  0xbd9db572bc5b8717U, 0x3cdc600d3de1cc19U, 0x3cbed088be0f2f80U, 0xbdb889d33d01e75dU,
  0xbd7364cb3d44812cU, 0x3e0261cdbd9f8d7fU, 0xbda14c50bdd6ca92U, 0xbdb518aebdb76701U,
  0x3ce13d2abdbe8005U, 0x3c9fd3fabd27adcbU, 0xbdb76057bd3f371eU, 0xbdfaef51bcd062a9U,
  0xbd3eb5b1bd112c9cU, 0xbd81efbdbd9452e4U, 0x3d5e178a3cfa1bb4U, 0xbd8a6f18b934b1b8U,
  0xbdae7c78bc2159f9U, 0x3dc581f6bd277f1cU, 0xbd8e49a2bdb42fc6U, 0xbdb288d2bd85acd4U,
  0xbe37fde83cd00c2dU, 0xbda31dc33df43f52U, 0xbe244b57bdb12815U, 0xbda9b7ddbddfd5d0U,
  0xbdb18946be613593U, 0x3d02a16bbb9bdd0aU, 0xbdae7d603bc026e3U, 0xbe274e9dbe101362U,
  0xbcc26d24be4aa944U, 0x3df87ee5bd66a9c2U, 0xbd20eda83d020eddU, 0x3e34179ebe11cebbU,
  0x3d5f39813d24d197U, 0xbc6bd99cbe2bfcebU, 0x3c3a2cc9be1cbeacU, 0x3d21f86f3b661f8aU,
  0x3e1ea2d2bc0b7048U, 0xbd04b6323d648cefU, 0x3df47a6abb4d795aU, 0xbde655743e090dc2U,
  0x3d380df43d814c18U, 0xbdb3f5fabd8a3c7cU, 0xbda165073c64ded8U, 0xbe144bc0bdd92879U,
  0xbdc135b93d136a7cU, 0x3c2ee38d3ddffd10U, 0xbc9dded0bdace9c9U, 0x3d76a382bdba9c6dU,
  0xbda5a5a53c0c306fU, 0x3d92abba3d30543fU, 0xbd6e4329bdbbeb7cU, 0xbca23de83d91a458U,
  0x3d51cdc83d5b3cf0U, 0xbda80f773d811fc5U, 0xbd7a1125bc4e0350U, 0xbddda831be1108f6U,
  0xbd4afa6e3c4b8ae9U, 0x3d0013ea3c69233fU, 0xbc9b2bf5bdcccad3U, 0xbbc028603dd8e0adU,
  0xbd58b343bda46555U, 0xbe318663bdcd630bU, 0xbd5fc4f63c372aa4U, 0x3d65840b3dd02876U,
  0xbdc852debda714e2U, 0xbd5fcc87bd3b6b1bU, 0xbd569879be034c7cU, 0xbd8447a3bd2db011U,
  0xbe12da97bd17d272U, 0xbda146ac3cbe7ed2U, 0xbe22e86bbdc16e64U, 0xbd15c9a8be00019aU,
  0xbdd6f9d2bcd2031bU, 0xbdbc6657bdd512b3U, 0xbc969bcbbd56b499U, 0xbc49d5a5bde4e6a0U,
  0xbc863c5c3ca37ce9U, 0x3d9483f03c4257e8U, 0xbdf9e6903c5558ddU, 0x3ddcf9aebdef6e25U,
  0xbd94cd4bbdc5bf32U, 0xbda03d61bd7be2d2U, 0xbbf80146bdff24a7U, 0xbc060b91bd332f69U,
  0x3d24b0e2bdbfa09aU, 0xbe170ad5bcb537afU, 0x3d6cbd063deaa7a6U, 0xbd7a627abc5e8879U,
  0x3d3ac4363d8e5874U, 0xbdc8f5eebd0665a9U, 0xbd65e257bdb39e0dU, 0xbe1b9021bc8ae453U,
  0x3d2d10f73d628b50U, 0x3e0f4f2ebd32639aU, 0xbdc73e13bcef1e55U, 0xbc4fb3dfbd413d98U,
  0xbaf346a33dac491eU, 0x3d8f4f583ba31ee8U, 0xbc7c9f7abdef1e0cU, 0xbdb0b34fbc56ea1bU,
  0xbdaf0f0f3cb2e0a3U, 0x3d42dd59bd15bf94U, 0xbdfda066bdbe69b6U, 0x3d2e6df6bd03bd82U,
  0xbd652d64bc2f09ffU, 0xbd12e4953e1dbf85U, 0xbd4b5d4bbd83d241U, 0xbd9bfb043d9e29eeU,
  0xbdc33e32bddce2cdU, 0xbe08cc1abdd19d6aU, 0xbdc765df3c83ad89U, 0xbc4d93da3d3231eaU,
  0xbbfec7abbdb25c57U, 0xbd100d783d77a420U, 0x3d26cef4bcdc5788U, 0xbcb6e962bdeed721U,
  0x3d30f7dabd8934caU, 0xbcbc56d13c8fc394U, 0x3d30e8e23d4da1ecU, 0x3d1566fabde033a5U,
  0xbca033b4bd37873eU, 0x3c4024e43d358e7fU, 0xbd445286bd1d8ce9U, 0xbddf28be3d9c30a7U,
  0xbcf84cbd3e050831U, 0x3dd008593d317f0bU, 0xbd7fc6b9bd6d2848U, 0x3d2556b7bded73dbU,
  0xbcedcc5f3d20641dU, 0x3d665ca6bd0decacU, 0xbd743553bdd71c22U, 0x3d810d993df5bb5fU,
  0x3dcd48b33d8e5fd3U, 0xbcd817cb3b5b5b84U, 0x3d5b6b2f3de438ceU, 0xbdc3e83b3e111759U,
  0x3cb814923cc8a851U, 0x3d7c86b23dc452b5U, 0x3ccb1f25bd1e995fU, 0xbe0c70823e169709U,
  0xbcdea618bd8977acU, 0x3cdbfe67be012e9dU, 0xbd7aa28fbdc6b5aeU, 0x3d1aa39d3dab5b98U,
  0xbd9554f03dfb3606U, 0xbe0d3d813cc34117U, 0x3cb79c4b3c954c5bU, 0x3d1a7750bde8b73bU,
  0xbc9c2d5abd586060U, 0x3d50d890bde76d90U, 0xbc5dd55abd89a635U, 0x3a91e0ba3c914937U,
  0xbdbc7ed03c8327fcU, 0xbb67d81abd00a894U, 0xbd6b926abdaff0adU, 0xbcfd0a7fbdbbbb1fU,
  0x3e17b855bcfe57d4U, 0xbd2170e7bda9fedcU, 0xbd0347c1bd2ca673U, 0x3c319dd0bc729155U,
  0x3d2a21763da8a20aU, 0xbd146b2b3cb81618U, 0x3d9341c03d5e3c37U, 0xbdaa76fd384d7f15U,
  0xbdd16526bdbca730U, 0xbcc40685be15dc3eU, 0x3d122d933d01a51aU, 0x3d80d3e2bc4afae7U,
  0xbdff4ddd3d62d825U, 0xbd779ae9bc3b04e9U, 0xbc9173163d0b9aefU, 0xbb914616bbc63932U,
  0x3dc148a3bdc28c19U, 0x3bc034883ca4d9c1U, 0xbe10c7e1bc005ea8U, 0xbdb1befabd7894f3U,
  0xbdc337d4bd504123U, 0x3cc126c7bda7f2f6U, 0xbd0621b53d02833cU, 0xbdae9866bc6dc681U,
  0xbd7d0b2c3beccd38U, 0xbd7790cfbbe3e796U, 0x3d53c58fbc03a6c5U, 0x3db3ff613c215272U,
  0xbd886a933ba4ccd2U, 0xbd7abd133dd9e804U, 0xbd38d25e3df4d7f9U, 0x3c92ff59bd470623U,
  0x3d06b540be3a543eU, 0x3de0ae3cbdd0b5a2U, 0xbde36461bc42ce2fU, 0x3df490bf3bb264efU,
  0xbc4836f5be0ad959U, 0xbdf4be25bdbdb9d7U, 0xbdcf2af53d7c62e8U, 0xbd850315bcf686b9U,
  0x3dd6edaf3d075cf9U, 0xbdfb9645be35e035U, 0x3a765a5c3dc084efU, 0x3d213badbd2b6d84U,
  0x3cdd3da53e05a1d3U, 0xbd3cf8b0bda98750U, 0x3d03aef43d8d43dfU, 0x3d43a03dbd4faf94U,
  0xbdd1672cbcc05e16U, 0xbe6199053d2c69d8U, 0xbc67633abe198ef0U, 0xbd3e3d88bdc21cadU,
  0xbc1786893d576bdbU, 0xbe256c0fbde30b13U, 0xbcef0fb5bcf66971U, 0xbc673df3bd3433d0U,
  0xbe290b95be34da4bU, 0xbdda4742bdc883c7U, 0x3d1221bdbdfcd684U, 0xbd3615d0bd4ba4f1U,
  0xbdaf044cbe03c051U, 0xbd6ed7ffbd8dca2cU, 0xbd8073283cbc8aaeU, 0xbca2ce20bd8430efU,
  0x3d9680973e0a9459U, 0x3beb5ed4bd9601eeU, 0xbd4086c3bd75fa3aU, 0x3d357d4bb7bb6504U,
  0xbd8925c8bd526aaeU, 0x3cf34b9ebd854c5dU, 0x3dd7e95fbd261b6cU, 0xbd482dd4bd5cf465U,
  0xbdc8d99ebe1680a1U, 0xbd15bbd7bc47f1f1U, 0x3dd8ea47bdf71172U, 0xbd810cea3d960e1aU,
  0x3d2e11e6bc900df0U, 0xbd4e28a63ba34bb3U, 0xbd84e903bd47c626U, 0xbd3f7232bcab3827U,
  0xbc41e178be224c7aU, 0x3d525d0ebdeb4ae7U, 0xbdae573a3da29473U, 0x3e15aaedbd0c63e4U,
  0xbb75c2a2bd344744U, 0xbcac854cbda7909bU, 0x3d9eb7d6bd347367U, 0xbbf7c7833d271c83U,
  0xbccaeccd3cc6df2eU, 0xbdfa6ef1be308c07U, 0xbd44deeabb1c587dU, 0xbd054f613d6bbc6cU,
  0xbd3a6a2abd36cd92U, 0xbc44ab083d8be0e1U, 0xbd799ecfbd579fddU, 0xbd203fc6bc04c8edU,
  0xbe05671cbdfc6442U, 0x3ba8232d3d4d9d9bU, 0xbe07b412bbd64493U, 0xbceb1cefbd709527U,
  0xbd825ab1bdedeb27U, 0xbd7dbe5dbe5cd133U, 0xbdc94c623d09e4d4U, 0x3ceda87a3c67ae85U,
  0x3c9e6045bde82ac0U, 0xbdea9236be965700U, 0x3dd2a2b63b4b0e48U, 0x3bc6a0fabce70639U,
  0xbd1fe079bc186d3fU, 0x3b9fa4c63de4fa89U, 0xbd5a5d00bce2edf2U, 0xbd015017bdcac347U,
  0x3dc62f6b3e524da6U, 0xbe583ca93dd89ac9U, 0xbd9da5b1b9c0be6cU, 0xbd7358143dcc445aU,
  0x3c8e848a3dba9ae4U, 0xbd07be0e3c71630eU, 0x3d56ee29bd6aac8dU, 0xbdc44a67bdc64f28U,
  0xbe07dc5c3cbc323eU, 0x3db613203d73df85U, 0xbc1f91413bebe33eU, 0xbdc8af9ebdcac846U,
  0xbd89bac3bde73d48U, 0x3d96d7003d1a0c85U, 0x3d0af14d3df50b13U, 0xbdc4cf463dbee066U,
  0x3d90b8a13e148078U, 0xbd15162a3d1a89b4U, 0xbccef74c3dbbe501U, 0xbe0dc0c5bcbf34b3U,
  0xbd2ba3813dd336e3U, 0x3ddc29c7bb97f245U, 0x3d849cd73d73a70fU, 0x3e41aac73d905d90U,
  0x3d34cd7e3e037a6cU, 0x3d07ba683d913428U, 0x3c427b003d117991U, 0xbd31db46be0f80b5U,
  0x3cae92a6bd91a68bU, 0x3c83aac13d04522fU, 0xbe3e3a613d81239eU, 0xbdc2d0fd3e25b91aU,
  0x3dad23023d3c3f85U, 0xbe009c11be01532aU, 0xbcd1d3c23d1ac2c1U, 0xbb8107c33e2abcf5U,
  0x3d9d8a623d9a8911U, 0x3e038f2b3d8fee58U, 0x3de15841be0ce99bU, 0x3d35a4f03ca89d49U,
  0xbe147d253dbcbb9dU, 0x3c7280773e0a6776U, 0xbd6497f0be2be1d2U, 0x3d12cc25bd03d824U,
  0x3d6bc700be63f86cU, 0x3d5cf8b1bca2c589U, 0xbd5090c63c06f64bU, 0xbe05ee1e3bfbb6daU,
  0xbe17f6d6bd017ff3U, 0xbdefe983bdaa2774U, 0x3c2096ddbe0a74b5U, 0xbc925c49bbec6a7dU,
  0x3d9751e03c32ed8cU, 0x3e3011e93d104e75U, 0x3df10620bdc1f7bfU, 0xbda710ab3bd9c03bU,
  0x3b8dfb14bb7909d2U, 0xbd5b1b423da39436U, 0xbdef4db5bd48ce40U, 0xbc8bd8a9be1e256aU,
  0xbcfb4d46bdb98dc5U, 0x3d27d2be3cf9ce11U, 0xbd80877fbcf8c323U, 0xbe0714ecbdae2e7dU,
  0x3dadbd873daac543U, 0x3d812701bca1295eU, 0xbd263bb2bc4f5c2fU, 0xbd3631463c9f9cceU,
  0xbdb972893d7b6185U, 0xbba00aef3dcac962U, 0xbd0e8c46bbd4c14fU, 0x3d47e0083ddce521U,
  0xbb8f9ee33e1786bcU, 0x3db9a7273dac64a8U, 0xba88fd49bdd68b67U, 0xbda67914bdd9400cU,
  0x3d0d5089bdc8e6efU, 0x3db1809cbdea9588U, 0xbd71d479bd5305f7U, 0x3ca041243e239f9fU,
  0xbd4822233d1fbc02U, 0xbdf85e6d3d124ec8U, 0xbd204a75bd71d1c0U, 0xbd23cfc83e1533deU,
  0x3d1cff06bdc9cf45U, 0x3dd743fb3d3f175fU, 0xbd8dcf58bda7a4d3U, 0x3d841371bdba56b2U,
  0xbdd51df8bdcfaa11U, 0xbdb0df613d5ca8efU, 0xbda286c4be89f87dU, 0xbd464397be4b6240U,
  0xbc9fd423be8174d3U, 0x3dcc3b69be49dfe2U, 0xbdd6f9aa3cdf9a33U, 0xbdfb27fcbcae9e01U,
  0xbe4cb708be2b3cbcU, 0xbe5b789abe2aeb4eU, 0xbdc4f650bcd2d970U, 0x3c1cb031be10a4b2U,
  0xbc860d0abdd09767U, 0x3d9af20ebcfa7ca5U, 0x3d0ffa9abc53bed4U, 0xbe30cf93bcdfd8e6U,
  0xbd1362acbe014d63U, 0xbe531b743db8d47eU, 0x3d4a1d35bceb9517U, 0x3cf5b93ebe2283deU,
  0x3d9b490dbb428382U, 0xbd91b57fbe226abdU, 0xbdcda22c3b99ee77U, 0xbdf53b34bd837f00U,
  0x3d4539403e030382U, 0xbc1b6e2e3dd45969U, 0xbdb94a043d8a768cU, 0xbe1f4162bce6eb96U,
  0xbdce74c9bd40e42cU, 0xbc84cab93e107a1aU, 0x3d03ada5bab23326U, 0xbcba4d333d5987b6U,
  0xbdba1e163dbc7bfdU, 0x3dd65f0ebd9926c9U, 0xbd8212d33d02d8b9U, 0x3d21991abdb2b66cU,
  0xbb20788ebda268d9U, 0x3d9128fcbdefdedeU, 0xbe2dc9933cafc0a9U, 0x3cde89883e181980U,
  0xbcf1013a3d56918dU, 0xbe328416bdac29a8U, 0xbdade69fbd981634U, 0xbe208d993b9e279aU,
  0x3d5888debd9487baU, 0x3e20f978bd38f9feU, 0x3de6e6a1bcc80419U, 0xbe0a19153c9dfaf1U,
  0xbdbe7de9bdb04eaaU, 0x3d2dfcaa3d27e13bU, 0x3d1a4dabbe6db067U, 0xbd942c46be04c74eU,
  0x3cdd361bbd8d47baU, 0x3dd1a095bd8dfefdU, 0xbe042c7c3c013fb3U, 0xbbb653ee3d6415bdU,
  0xbdabca36bdeb9663U, 0xbe2d99a7bd87ea1cU, 0xbbb6f2febda24ea0U, 0xbc8ef315bc2d1e22U,
  0xbd7e67aebde06394U, 0x3dccc0c2bcabdf3dU, 0x3d30bf9cbded9860U, 0xbc964b4e3a82b8b6U,
  0x3d979b5fbcdd3c70U, 0xbe2197793dda488bU, 0x3d40085dbe0468a7U, 0xbde947993c6e3e76U,
  0x3d94b3efbd868522U, 0xbc82d69fbe2f32ffU, 0xbc1159f1bdb45ab2U, 0xbd2542a5bdc01937U,
  0x3dfe8a52bd7e0b01U, 0xbdb40bc6bc9aadc1U, 0x3dc405953ba47f0cU, 0x3dfeed303d955f36U,
  0xbd629e8e3d49bae9U, 0xbdba68ef3d19315cU, 0x3debc5c63dc828b4U, 0xbdb664a43dcf8b4cU,
  0xbcdedb533e24c8e0U, 0x3d48d3c1bd96bfacU, 0x3e0bc9383d817206U, 0x3d6411333d885731U,
  0x3c830cdc3d93e3b9U, 0x3e25ae10bd09c3caU, 0x3e20a947be076b62U, 0xbc39a771bd8f649eU,
  0x3ddfea923d8c1556U, 0x3ce5f6a5bda1257aU, 0x3e066942bd4ba679U, 0xbdb9e93abd8a1142U,
  0xbdb2361b3dd5ab99U, 0x3ce781773d34c312U, 0xbdc9c8fcbc1550f7U, 0xbe9607aabdb2e6f9U,
  0x3d3fb51d3c88bc00U, 0xbe2072463d6e418fU, 0x3d890573bd6208b3U, 0x3d1a2b94bde265d0U,
  0xbd633438bc713c0aU, 0xbc42f3e53e045c9eU, 0x3dcebd3f3d9f9089U, 0x3e2ae3c93d8d5870U,
  0xbb57fffe3dbe4cbcU, 0xbcc97159bda7ae62U, 0x3b4e32c63dab4544U, 0xbe22b3babe4b50cdU,
  0x3d70a9743db8bc61U, 0x3c28c3073dbb067fU, 0xbd5dfc4a3dff44f0U, 0xbe312899bdee713cU,
  0x3d90592e3b583da8U, 0xbe1b50583c23f633U, 0xbe039858bd001b7dU, 0xbd1df527bd830d70U,
  0xbd9111e43c769bc6U, 0x3c2295cb3d2dbb90U, 0x3e3ffff33d32cf6aU, 0x3d9994a9bd3940a8U,
  0xb76e6808bd922b16U, 0xbd8d3ce83e1982fbU, 0x3db3c752bd7d99e4U, 0x3de7760c3d8a7d88U,
  0xb9a0c7f33b1f3a7aU, 0xbdd07a53bd906023U, 0xbd8980d2bde4d62dU, 0xbd9b4def3dd0a143U,
  0xbd6ac72dbcc02d3fU, 0x3d8bd5343a74b386U, 0x3e2d7702bc9c9bdbU, 0xbd9ed164bb2cb54fU,
  0x3da4dc0fbdaec609U, 0x3d796868bdf5fdc4U, 0xbd36225fbdff2fd0U, 0x3cf1b444bdd3c60cU,
  0x3e154217bd58c667U, 0xbc930b3dbcec9917U, 0x3e20f18cbe34d1d9U, 0xbc0a427dbd1f1a80U,
  0x3d9cd1be3cfaa9d3U, 0x3d3f2bb63dc0143dU, 0xbdfd4b8fbc69841fU, 0xbe287166bde33977U,
  0x3e2582223dd61eedU, 0xbd9a548bbdcd102aU, 0x3dd665873c0d2ebaU, 0xbccd835fbd8ad927U,
  0xbc57d71d3cf0e4a0U, 0xbd8f5612bd68b0e8U, 0x3e6445e93d8c49b5U, 0x3dd5fa593d2557f0U,
  0x3dd086a23d254799U, 0xbd45d57fbe12281dU, 0x3dbf36e5bd0d96b5U, 0xbe770dbcbe504424U,
  0x3dcf62983c3ec85aU, 0x3dedcfc13df65ae2U, 0xbc9cab103e1562a6U, 0xbe99ab193cb3713aU,
  0x3dc220c03d31f245U, 0xbe5062f03e08bc58U, 0xbe5180f0bd9536a6U, 0xbd95474bbd4a4550U,
  0xbdd2b9183dfffbbeU, 0xbde33344bca0c5f7U, 0x3dc7c7873d8ed967U, 0x3db41923bd88008fU,
  0xbd355ce7bdf5ca2cU, 0xbd00a1233e0e3b12U, 0x3c97e0e9bcc13b7aU, 0x3d7784dfbab5236fU,
  0xbd9cec66bdc2c2e1U, 0xbd711de6bda94abeU, 0x3d9e6c803d853f98U, 0xbe0cdc0ebd5fc11cU,
  0xbde9469a3df487a7U, 0x3e185e33be21c8c2U, 0xbc3adfa83d9c833aU, 0x3cb638973e1da1beU,
  0x3e31efb3bd45047aU, 0x3e1d85863ccd7321U, 0xbd2d6551bd8d59e5U, 0x3d6c7afbbde9cdf7U,
  0x3d9a8a77bdca4e1bU, 0x3d822a44bb798245U, 0xbcdd43503d3c0880U, 0x3d11aa453c6cea18U,
  0x3ce961e1ba56841dU, 0xbd9a7859bd6e9b9aU, 0x3b0602573e05aa32U, 0xbe64f086bdf0020aU,
  0x3d8f3dafbd03b013U, 0xbcd751f23cb65224U, 0x3da947eebd9ada3bU, 0x3da53931bd626936U,
  0xbcc6bddcbdce7bfdU, 0xbd248b483d90a06fU, 0x3e4220c33dca7889U, 0x3e14a4063d8c0f1cU,
  0x3c4f5771bca6838bU, 0x3d837698bbe5a7b4U, 0x3d35e1bfbd287b80U, 0xbc3664333cae1c5fU,
  0x3ca340733c80f284U, 0xbc63f4bb3d71f6e8U, 0xbd8520cfbd0ab2a9U, 0xbe4d1e8dbe0823b5U,
  0x3dbbf7ea3cb535bcU, 0x3b6ea3d33dd09909U, 0xbdbed337bcc41b46U, 0xbd6efc20bd31a8b5U,
  0xbd3af3c53d2eab80U, 0x3c727cb6bd34ec9aU, 0x3d09790f3e1c61d6U, 0x3dd609abbb4c9401U,
  0x3cc1cffebe17101cU, 0xbe1b9bd3bcd7bb68U, 0x3d0a4a3bbb6b2b01U, 0xbd2196eb3dd0f62fU,
  0x3d784bf23df9666fU, 0x3ded98533bef6016U, 0x3de6a907bc5b3e6aU, 0x3d3da6973d5b22d8U,
  0xbdf23436bcacdfb9U, 0xbe2ce91e3dfc810fU, 0xbdf3f2e4bc74acfcU, 0xbdb57bcc3bede0e1U,
  0xbcd2f8f2be832581U, 0x3cb4a6cdbba65ebcU, 0xbd47f3c03d824ad0U, 0xbe00c2d9bdd7648dU,
  0xbd9fde1cbe324af1U, 0xbdf2c2d4be25b266U, 0x3dcd01943df4f39fU, 0xbd5b49283c6c8a37U,
  0x3cbcee413d14fbb0U, 0x3d27fdf7b9b08d8fU, 0x3d61fef2be2276d3U, 0xbcdcd5493d83e1d0U,
  0x3b3de4783d41a70cU, 0xbd7c45083e1aa6baU, 0x3db0126fbd47a84eU, 0x3d371b373ca3072aU,
  0x3db4f935bda24fbfU, 0x3d0ab34c3addf106U, 0xbdf46dc1bdc3a979U, 0xbd0e5b6bbdcd3329U,
  0xbd65fe43bcde32d7U, 0x3ca03ee3be10366bU, 0x3dedbd33bbb80dcaU, 0x3de4c982be16070cU,
  0x3a8c87b23d71f4f1U, 0x3dae5f7cbda3f8beU, 0xbd8a3de5bd561203U, 0x3db621d93dd960deU,
  0x3e13f5ec3d269adfU, 0xba8c1f2d3b76ba1fU, 0x3dda39023c9418c3U, 0x3ddf20ccbb140dd3U,
  0x3e12ade63d623d56U, 0xbb105b843cdec3f5U, 0xbe1113923cc9aaf4U, 0xbd8f6830bd7ca172U,
  0xbde93519be7b4ebfU, 0xbe6e8f78be57768aU, 0x3d337f1d3bc80611U, 0x3c7a57fb3dc6bf7eU,
  0xbd800800bce272deU, 0xbb8464f5bd5a8540U, 0x3de57050bd3c37cdU, 0xbda7cbb8bd886efaU,
  0xbe334081bc3704a2U, 0x3c172d903ddebc5fU, 0xbda3c2e1be02c5ebU, 0x3d6a57fbbe4fc2a3U,
  0xbd05db3bbd857b5cU, 0x3d97bc0ebd922782U, 0x3bfdedce3d08c47bU, 0xbd766522be162be0U,
  0xbd86e2b6be647f01U, 0xbe4dbf7bbe146bb2U, 0xbcdb998c3d0d4072U, 0x3d0ad315be3c6ac5U,
  0x3c9a508a3c998cecU, 0x3d93a371be21411fU, 0x3ddd1886bcda83deU, 0xbde0382d3d75e724U,
  0x3cf8013d3cc62876U, 0xbe60b1b63b814c08U, 0x3da4c084be2bbd82U, 0xbda97b51bd0e13adU,
  0x3d9c9bf7bc866b1fU, 0xbd2e9ee7bdaaef4dU, 0xbe2fef1ebdc834cfU, 0xbe1fb8e2bdcd7601U,
  0xbd515289bd3106acU, 0x3df63dc93d577bbaU, 0x3d7296e53dbf94e3U, 0x3d6addad3d2ca41eU,
  0x3da93018bdb47a2fU, 0x3df39b92bda0e661U, 0x3bb25f6ebcbd47d6U, 0x3db50218bd3ea4ceU,
  0x3ddc421a3d8572c2U, 0xbd9d90063e02dbb6U, 0x3deeddf63dcc85e2U, 0xbd3637c1b9024812U,
  0x3e0eb81a3d34374dU, 0xbddb4d3c3d420244U, 0xbe24b996bd1616fcU, 0xbba71017bd0a44bcU,
  0xbe058114be413208U, 0xbe2a19acbe0753daU, 0x3d22a614bd4d7706U, 0xbe0af8dbbd1935eeU,
  0x3d9bce7ebd844d18U, 0x3d7efdf33d425bffU, 0x3ccf0e1bbe1e0f2bU, 0xbe16c26fbd41193fU,
  0xbdfdb829bdab0785U, 0x3d2770143d890249U, 0xbd1061b9be2f4a4bU, 0xbc965c2cbd83ed2cU,
  0xbdcb3ef0be49e599U, 0xbd21b2e5bdadbb09U, 0x3d4e7571be0916d2U, 0xbe0f6437bd9e7ee6U,
  0xbe26e08bbe7abf0fU, 0xbdf17b0ebdcd0d14U, 0xbdb7f998bde1028bU, 0x3c112495be20f2bcU,
  0xbc9a53a3be0c19b7U, 0x3e05f182bd267243U, 0x3dc8a797be3325cdU, 0xbc2058f8bd82b3ffU,
  0xbb99446abd32cdb2U, 0xbe4ef1c23c804608U, 0x3ddc2094bafd1393U, 0xbdf9265b3d0e7f05U,
  0x3d27640cbc89437eU, 0x3d8220d5be21a837U, 0x3c2f939dbdb7283bU, 0xbd674880be18c38eU,
  0x3e1b415f3dfa6a49U, 0x3e149d833e0d5992U, 0xbcaed03abd3717ebU, 0x3c91d580bdb10eb3U,
  0x3d9215793d4fa5cdU, 0xbd8cb31a3e098bffU, 0xbd31bac1bdd9fb36U, 0x3d7c8177bca86d0aU,
  0x3e10487e3dba551bU, 0xbd7a59c53d3ad6d8U, 0x3d4ef60c3de00067U, 0x3da4c4943d0e77c8U,
  0x3e22bc7a3dc461c1U, 0xbccee242bdfd425aU, 0xbd1cee27bdc0c6b6U, 0xbcdf7047bc16f539U,
  0x3d194ca0bd0e8f27U, 0xbdb95208bd723009U, 0x3da22a1b3d440124U, 0xbd1a47443d151f19U,
  0x3d027918bba891c6U, 0x3c924b24bd808e84U, 0xbe1f4390bca6e307U, 0x3e44023fbb73e132U,
  0x3b2ebcc43daca035U, 0x3d962b6bbe02cc75U, 0x39ee5e6f3d4806bcU, 0xbe02a953bd3b28a2U,
  0x3e011fb43ca8b164U, 0xbd822ec83d659443U, 0xbd5c678fbc8ce7dbU, 0x3d872fb4be14099eU,
  0xbd49d8c43e170715U, 0xbd2aaede3e061c48U, 0xbe106a91be480596U, 0x3cc9ce7dbe10a607U,
  0x3d9a57883df19653U, 0xbdbb9a523d682013U, 0x3cd6fb263dec87ceU, 0x3edac636be48b084U,
  0x3d7875d3bcbc558aU, 0x3d98e213bcd771d0U, 0xbd8b3fb8bd88dcf2U, 0xbd1a4b4ebd7f325dU,
  0xbcf27638bcbf990fU, 0xbe06e6843d53ebc1U, 0x3c5f1170bdfe26a2U, 0x3e0add6b3e0585b1U,
  0xbc45027b3d9985cbU, 0xbc3ac7fa3dc45f8aU, 0xbbd42334be2ba82aU, 0x3c060b353d5bdab1U,
  0xbdbd7447bd6f1288U, 0xbdb935a63e2c3b95U, 0x3dca01003d8992a4U, 0x3e7d42c4bc83b8a7U,
  0xbe084879bd37b2d1U, 0x3df9795dbd8ddd20U, 0x3d92ca77be3ec1a7U, 0x3e2dfefc3bceb79eU,
  0x3c4eb339bd4a0af2U, 0x3da3c8f5bdda9864U, 0xbdbc3b203d0987d6U, 0x3d863a093e5a6642U,
  0xbd998ea03c824861U, 0x3da95289bd4ba92dU, 0xbe28d059bd52c94cU, 0xbcad011c3c15015cU,
  0x3d1214c4bb904070U, 0xbda2f3f8bba53da7U, 0xbe1e0b323df4f313U, 0x3dfb4fccbd399c7dU,
  0xbd5043583e20df1bU, 0xbd89c0d4be1a02c9U, 0xbcbfacf3bd0a9a69U, 0xbcbe8b3c3c820849U,
  0x3d8d955b3da7ffe4U, 0x3d7fabf63d8100c9U, 0xbe1aaf6b3d8f5ea8U, 0xbd766203bddc5b43U,
  0xbddf17cf3dcff27fU, 0xbe240a763e1d0b01U, 0xbe0b1673be409b47U, 0x3c1e56e4bdb00114U,
  0x3db27b873d911acbU, 0xbd78ee923cadebf4U, 0xbbe6106b3db7fc0aU, 0x3ec43dddbdb0d943U,
  0x3c4204b1bc88a136U, 0x3bdba5c6bda91dd5U, 0xbcaeea96bdf48db7U, 0x3e026a6bbc338c3fU,
  0xbcd452603c85ebc3U, 0x3d9622783dc413a2U, 0x3d231accbdd7fcd1U, 0x3cecaf863e5db624U,
  0x3cfa51853db52c36U, 0xbdfadc68bd9595b5U, 0x3d670eacbc2c76c5U, 0x3d483af8bb8d7365U,
  0x3d02d9bcbdd4c057U, 0xbd4fd3543dd84fc8U, 0x3d74a0f53db9cf91U, 0x3e0598843c161289U,
  0xbd44cbfbbbc1c134U, 0xbc9bebe6bd4f4a76U, 0xbd9335ddbcae4395U, 0x3d98e1e13c6cb8f4U,
  0x3d1b7545bceb72cdU, 0x3c21b49cbdd18f4eU, 0xbdd0677c3cc02be1U, 0x3d26fb7e3dfde3f6U,
  0xbd64b7b93da804d3U, 0x3e1182163ddacafcU, 0xbd516c6a3d8721ebU, 0x3d4557b33cbea842U,
  0x3da4a7f23d5d7083U, 0x3d97b096bccd9bfaU, 0xbdeb2f9d3d396413U, 0x3e4fda73bc9a69acU,
  0xbd4e5b073e07834aU, 0xbdb5159ebd031208U, 0x3c7552613d805c71U, 0xbc178e773d240282U,
  0x3daaf32cbd0ad979U, 0x3ddae86dbd9597b9U, 0xbd5d41983df0e01cU, 0xbd63958c3d3eb5b5U,
  0x3cd60d9d3dd6e1d6U, 0x3c8f446f3d49f50fU, 0xbe03e06abe4b22e0U, 0xbd479819bdb1bb7fU,
  0x3d341954bcfb9528U, 0xbdaac98c3de060baU, 0x3def03ac3e0569b6U, 0x3e8c2667bc4ae6d9U,
  0xbdf5947ebd198897U, 0x3e0fa362be036693U, 0x3cbc6862be1a705aU, 0x3be1e57dbd941ffdU,
  0xbdeb31cd3d4c175bU, 0x3dc241fc3daa923fU, 0xbe261625bd11a16fU, 0x3d2fe5823e29a9b7U,
  0xbcbfacf8bd144ec5U, 0x3d6334183d0f61f9U, 0xbdce05d4be5b0960U, 0x3d3c59bc3d87433dU,
  0xbd99a152bd783620U, 0xbca88b51bd8f46a4U, 0xbd7305adbdce970cU, 0x3daf3da6be4bd34cU,
  0xbd9cda17be349b2cU, 0xbd91e1de3d7d94b0U, 0xbbb809dfbe2d14ebU, 0xbd884a1e3d8cbbd9U,
  0xbd98608dbcc7cb42U, 0x3d506f6ebe355cf9U, 0xbdbd8062bdf7d141U, 0xbcacd5f9bb58ceabU,
  0xbcc2f3953da03fcdU, 0x3dc8699dbce6b20aU, 0x3d040c22bdaf97d1U, 0xbe133b43bcbc092eU,
  0x3b7f821cbc069fe3U, 0xbbaa55e6bd9fefb2U, 0x3da1a31e3e2cfb58U, 0xbe68f498bdc5bc1cU,
  0xbd52cefebdb46a5cU, 0x3c80a8793db081abU, 0xbd9683dbbc80e2efU, 0x3d2b4d133d74e342U,
  0x3c0a937dbb619f80U, 0xbc73a771bd6eced8U, 0xbc29d63e3dbcf0cbU, 0xbd266e46bd89421dU,
  0xbd2b89a6bd597118U, 0xbd3548dabe076751U, 0xbd29c0a73d1675c9U, 0x3d489a71bcd25e9fU,
  0xbd073b3cbcfd0f0bU, 0xbd086cc93d31728dU, 0x3e044f49bd683e83U, 0xbdcea38e3d910e56U,
  0x3d714247bcf69f2eU, 0xbd4a078c3d950589U, 0x3dbe5b493cafd297U, 0x3de8c529bc708ef5U,
  0x3d8cd2fbbd64919cU, 0x3d27ae9fbd9702f6U, 0x3d2a78f0bdb44ae9U, 0xbd9e36e83cb7d44eU,
  0x3d30bc97bd3e47f5U, 0xbd8d739f3d24c2c2U, 0xbd18dd0abd379214U, 0x3cbab2ac3d013134U,
  0xbd4a24033ccd162fU, 0x3c32e22a3d8e6e4fU, 0x3c37d33c3c9b3ba8U, 0xbe06e56bbd989c99U,
  0xbdcdd0553dbd32d4U, 0x3d359637bce93823U, 0x3ce9c6d23d750ef9U, 0xbcb91dd7bdaa872aU,
  0x3e3930cfbdb0af31U, 0xbdad880dbd39de48U, 0x3dc0fb123c121f7eU, 0x3d073760bc473c65U,
  0x3d28a862bd369ee3U, 0x3d2e0b0a3c9c7d3bU, 0xbcd8ea0c3cfc8251U, 0xbce1c631bd7e537eU,
  0xbc75ef433dcf24b9U, 0xbdd45e37bbd77beeU, 0xbdae8cbc3db9db67U, 0xbe4cf12abd2f045aU,
  0x3de3196dbcf25559U, 0xbdec28383dba7cedU, 0xbe023767bd849182U, 0x3d2eaeeabc6c2d47U,
  0x3cbfb3dd3e351f24U, 0xbe1e48403d51ae2cU, 0x3c4c14563de58a09U, 0x3e2d4cfc3db7ce31U,
  0x3d980a04bd044e60U, 0x3d4145eebd141caaU, 0xbd7af463bd2b0d2eU, 0xbc35ead83da6022bU,
  0xbd5747653d911994U, 0x3de072903cabfd74U, 0x3d2417613e24bd41U, 0xbd956de9bd741d5bU,
  0x3d101cde3d87d25bU, 0xbd19b374bdafc27eU, 0xbda7da47bcdd1836U, 0x3db23336bd6183f6U,
  0x3d5536a93e175066U, 0x3c91a010be1da1ecU, 0x3c89881a3e0e0cf1U, 0x3e053c533c439325U,
  0xba8148ae3c717da0U, 0x3ddbcb6cbe02c79eU, 0xbd2a6126bcadc741U, 0xbd3d70be3d889e6cU,
  0xbdb72c3e3de28ceeU, 0x3d9cd7c93c93d946U, 0x3cc6edbd3d7d4e4aU, 0xbe203ba63b2d2e90U,
  0x3def09f4bd894b51U, 0xbdd956d4bdb9bd58U, 0x3dc1cd213d7d1d17U, 0xbd8a043ebc152e4fU,
  0xbd1d89acbd619c02U, 0xbc0646debdd38380U, 0x3bce8a32bbae6871U, 0x3c95b7ae3c19df31U,
  0x3d7522e7bda3f010U, 0x3ccddafe3d9ccf3bU, 0x3d7363febdc5aca5U, 0x3a1d36f93d3a2f73U,
  0xbd09a2793da6298fU, 0x3caf65f1bd5944acU, 0xbd531fe73e15275eU, 0xbe7a936dbd7597efU,
  0x3d0c07f2bd742e4aU, 0xbc01e51e3d8b701aU, 0x3d962a35bc8dcb0dU, 0xbcbdc787bd1b503cU,
  0xbcb00fec3ccf15dcU, 0x3cdd4a1e3d7e8be7U, 0x3d9a936e3e2b39beU, 0x3e3215623d5683e4U,
  0x3d860b79bd4f44dcU, 0xbd1d908cbe268a1cU, 0xbde70289bc6d85a8U, 0x3c12802dbd4d3651U,
  0x3d49d9a2bdc258a7U, 0x3dd2b898bd98f061U, 0x3d193f403d452afbU, 0xbe263feb3d818927U,
  0x3dbb3007bd266bb8U, 0xbd46dba1bda2207dU, 0xbc6782e0bdb24283U, 0x3de877823cfd0467U,
  0x3e169a633d9b5dfaU, 0x3d976bccbd49acebU, 0xbc821c773d83de83U, 0x3d8b36c63c831aa7U,
  0x3db29f853d76f25dU, 0xbb486ee1bdd86419U, 0x3d19b1263bca2dbfU, 0x3d23fbdd3cc937a4U,
  0x3d8016e4bd025edfU, 0x3da282eb3e4a8cd1U, 0xbd9bf544bba6d79fU, 0xbdc7a3b5bb0b0c57U,
  0x3dfecbb53db459a0U, 0xbd4c0491bd21a6d2U, 0x3ca68573bd7339ebU, 0xbd495693bd5f83bfU,
  0x3d2ecd563d6fa9aaU, 0xbb77e7e53c8797acU, 0x3e1700193c3b7053U, 0x3d85469fbcbd5af7U,
  0xbd06e84fbc2e6f9cU, 0x3e3961e8bc2f8f67U, 0x3d38115c3e169e12U, 0xbd04e413bb90f6acU,
  0xbd8b6f183d07ea46U, 0x3b1bcd7d3d9305fbU, 0xba8aa37e3d8ab9f0U, 0xbc93e8433da1cb00U,
  0xbca427f53e0a57a2U, 0x3cadaf6ebde99d20U, 0x3c61d2963d6ccab9U, 0x3b92a7f63cdca49cU,
  0x3dc658b43cfa8787U, 0x3cdb4447bd796221U, 0xbe5df420bd0377fdU, 0xbc31668fbdb614e4U,
  0xbd3f313b3dc99858U, 0xbbfa7968bc3f2cc6U, 0xbd95211bbcaeae4eU, 0xbc6971a43e5a4ef0U,
  0xbd1420eebdbe5124U, 0x3deef2f23cf92a48U, 0xbcc082c4be084a46U, 0xbd04996abe2d1c03U,
  0xbcbd3d73bd1b75a2U, 0x3db436b13e08aa3eU, 0xbddffb8fbdf344a3U, 0xbd330be8bcb1ca9dU,
  0xbd0c940bbc8a9f01U, 0x3d8f4667bd19e061U, 0x3ca4044bbcdbf67eU, 0xbd9fcfe93d72f6e2U,
  0xbcd2a5b3bdb4f96cU, 0xbe44741dbe784863U, 0x3dc53051be369efeU, 0xbd0782e5bbefe722U,
  0xbdb2e75b3d176e4cU, 0x3dd979933cf5b4b0U, 0xbd50fccdbdc8e0eeU, 0xb9c4124cbe1937f2U,
  0xbd566f3d3d179642U, 0xbdd7d0b93ddb78e1U, 0xbc36e7a0bdc05269U, 0xbd9d7d30bd0a0237U,
  0xbd0fa47ebe5a9684U, 0x3cb5c278bd277b1cU, 0xbd42c865ba8f22d2U, 0x3d1d31ffbd9843adU,
  0xbcd5aaff3cd3dc8dU, 0x3e2c4ca63db7a03bU, 0xbdd942833daac498U, 0x3dc0b686bcba78f0U,
  0xbd2500873c36ac1dU, 0x3ccbea34bd8b9582U, 0xbcbcb4363d361213U, 0x3c28f96c3cade5edU,
  0x3e1d43e53d7cb945U, 0xbc6c0cdcbd1b6f6dU, 0x3d6d061e3dfec9e8U, 0x3cd0cdf13d4df810U,
  0x3dded9ec3ca7132fU, 0xbcf95cabbc426bbbU, 0xbda3f875bc85fad7U, 0xbdfc5674bc3db3a9U,
  0x3d27043ebd14b435U, 0xbde637e23d8aa5c5U, 0x3de2b491be108c08U, 0xbccd2b893df57d7bU,
  0x3c9e48ffbd879198U, 0xbb76ec083db26ecfU, 0x3d1043eabdd26482U, 0x3d599042bdaef2daU,
  0xbdd7e93bbdc30516U, 0x3da3efff3e09853cU, 0xbdd08b68be192a2cU, 0x3dc7d73fbe0109c5U,
  0x3d6c3018bd8b3fcbU, 0x3cc8210cbe13cc78U, 0x3b1a16b23daca933U, 0xbd91bb7c3dcc8f6eU,
  0xbdcd4fc0be362660U, 0xbe5e5572bd0f08b3U, 0x3ce7fe02bd8412c9U, 0xbd34eb5439d1762dU,
  0x3db6962dbd4c0f25U, 0x3e19a734bd0fbec6U, 0x3dd31b1d3d51b414U, 0xbdba4582bdc6322cU,
  0x3d0f5d82bdd56c2aU, 0xbe1a9bee3c2c908dU, 0xbdaa982b3d9b1070U, 0x3d1d4831bddf4fc1U,
  0x3d7b9af9bda70ab2U, 0xbda10654bad055fbU, 0x3d66ecca3d09c2f9U, 0xbc1e17fabcaf3e37U,
  0x3b121197bda8ad46U, 0x39905d963e0224b1U, 0xbd00065fbd5a0445U, 0x3d268f36bdbc90bcU,
  0x3c8efce73b5da2b6U, 0x3ce584bbbd5a8b58U, 0x3c308902bd933235U, 0x3ca2c4d5bd467e64U,
  0x3de3346abd919077U, 0xbd1d8980be1e67f2U, 0xbd882babbce815f4U, 0xbd5dfbb7bd51ce67U,
  0x3d750539bcb48475U, 0xbd97a8aebd9045abU, 0xbdd47824bd370ecbU, 0xbd8e83d4bd38ff5cU,
  0x3d82f2723c8bd7b8U, 0xbc38f49fbd991092U, 0x3de08b56bcec61a3U, 0xbd42ae8f3e096711U,
  0xbd99061bbde59196U, 0x3e526264bc3b0445U, 0x3ddeb2c53c048b79U, 0x3d590412be1e9b4eU,
  0xbe0bb71ebd11bd9dU, 0x3df037c9bd2b45cdU, 0x3cca893abd59f7f6U, 0xbcc791d83c228f85U,
  0x3b4bfe713cea05fcU, 0x3d286a6ebd77e62eU, 0xbcedb2cdbcc022ceU, 0x3d2fb5e63d12e670U,
  0xbdf4c4abbde0177fU, 0xbcbf3002bc95036fU, 0xbddd64043db4d159U, 0xbd93f0e7bc363e57U,
  0xbd9ef6b5bd6b0e22U, 0x3dddb296bd558f62U, 0xbd7d9a59be0a9455U, 0xbe1500d53d3e1db4U,
  0xbc7e48b03d70fe37U, 0xbdf3551c3e0473e5U, 0x3c1a6e113da38a4cU, 0xbd885dd43bbecce9U,
  0x3dee6c98be1f647cU, 0x3d0bf26ebd490fb8U, 0xbd9d88833d8d68a7U, 0xbca139a3bd9c5153U,
  0x3dbdc8943d5a5effU, 0x3d9990863d948e66U, 0xbcb133c4bcab75f7U, 0x3c83db87bdb97c19U,
  0x3dc0a4213d467e78U, 0x3d39ac003d69c4b5U, 0xbd194e023e03a11eU, 0x3db4bd82bd148ee8U,
  0x3ddebd4abda1014aU, 0xba00111dba920ca8U, 0xbd130478bd0a8705U, 0xbd147991bb15f163U,
  0xbdb7991c3de085b8U, 0xbda8b8ea3d20da13U, 0xbcc662c6bddf828bU, 0x3dc1461b3bfd4fbbU,
  0x3d673c483d3c6aceU, 0xbd64d329bc792f97U, 0xbd9ab0cdbd820c36U, 0xbdd11560be540c67U,
  0x3d9bff8cbc1502b0U, 0xbda8dd78bd934495U, 0xbccbe2e93d045412U, 0xbc8f38e73cdef27aU,
  0x3d9746dcbdece4aeU, 0xbdb54a53be036f78U, 0xbc7166b2bd9667aeU, 0x3c3cf756bbef1026U,
  0xbdbb7ab83d97f400U, 0xbd9986ba3c9b018fU, 0xbdc3a85d3d0d4ee1U, 0xbd1464bebde5ea07U,
  0xbd906b0ebcf8c007U, 0xbe0e407fbde6e350U, 0xbd75bc40bda1253cU, 0xbdd3e64ebe1f349eU,
  0x3d7528e53d898b22U, 0xbb168f2dbdfdcfacU, 0xbdfc4c92bdd1b3fcU, 0xbe0a9bfabdb0f110U,
  0xbe0248a3be04407dU, 0x3d65c685bd6a1393U, 0xbde138ccbdea21f4U, 0x3d0a37e6be09ae4bU,
  0xbdc26859bc6d4001U, 0xbd3e86993d847e63U, 0xbd953d3a3c2c9cf1U, 0xbb02d83c3ceb83c7U,
  0x3daad8f13dba5a0cU, 0x3e091c76bcc9ab59U, 0xbd4f6d55bbf7d16dU, 0x3d04efa6ba8838ffU,
  0x3d16c7d4bd2e612aU, 0xbd1b322b3d344f41U, 0xbde3a8c1bda0b7e5U, 0xbdb0a624bd754a06U,
  0xbd17311e3d0048e0U, 0xbc5640bbbdc63f91U, 0x3cf4aa46bd245718U, 0xbd8ea254bb844f5cU,
  0xbd9d39e13e01f9d8U, 0x3d0c47bb3cfa95b3U, 0xbe13236dbc8e3433U, 0x3c64adb63c2d3416U,
  0x3d791a2d3de624f6U, 0xbb9f4b3c3d11dc16U, 0xbda4fc693c5385d0U, 0xbd0956313b187da8U,
  0x3c3b2679bdaba697U, 0xbc02278a3d8006daU, 0x3d982ca8bdb498cfU, 0xbd204265bdd568beU,
  0x3abab0a3bde75a3fU, 0xbb8e023c3d97bbb9U, 0xbdafc9b1be2b1881U, 0xbdaf8bfebbd3c6d0U,
  0xbe50193dbd8f0284U, 0xbda06a863d6cb156U, 0xb8bbdb143d7472b3U, 0x3c00bf6c3e1285dcU,
  0xbe0eb560bde02840U, 0x3dd58458bdc42cbeU, 0xbd8b10e53e202898U, 0x3c3bb7d43c258412U,
  0xbd52cf593d0f74f9U, 0x3d85db23be32d43bU, 0xbda3d8adbc262fc5U, 0xbd1f67be3dfb330cU,
  0xbb6b50cebcc76d6aU, 0xbd8f1c993d8fb0b4U, 0x3d86cef8bcdd3177U, 0xbd9ef2a93d26baa8U,
  0xbe32fdd93ce2d7c9U, 0x3d8d09f23d510a95U, 0xbdeef948bd86c59fU, 0xbb123637bd062276U,
  0xbc08e018bbe40ad9U, 0x3e2230da3d232040U, 0xbdd780dc3df93827U, 0x3dc9668e39a207eeU,
  0xbc0f046bbcdbed60U, 0xbd388531be0c4737U, 0xbe022c6bbcbb6892U, 0xbdc7f0adbd065a55U,
  0x3ded10c0be1237b4U, 0xbc901a0b3da99dacU, 0xbe04985ebbb492d4U, 0x3d94d8ef3d05eb62U,
  0xbe6388fc3dad7c4aU, 0xbe0131e1bdb6136dU, 0xbe206ac3bc036f5fU, 0xbc9c355ebe0e7418U,
  0x3d986e013e19008dU, 0x3c62f3643cf7b1e6U, 0x3b6aa363bccdb8eaU, 0xbd360fe13d59f376U,
  0x3dc98e0dbcc3cea9U, 0x3de88116bd0c5a65U, 0x3d9c48573ce3c523U, 0x3cabc30bbd14ce20U,
  0xbd3e2d6cbe486199U, 0x3dfda4a03d52b709U, 0xbdd3b6a53c87a1b1U, 0xbd83dcc13ca949d2U,
  0xbe5053623d381d2fU, 0x3d7d688f3d9c7195U, 0xbdbf794f3dc9420dU, 0x3d3971643d5e3048U,
  0xbd80c618be06d99aU, 0x3dc2bdb8bdceb3b9U, 0x3c1d610e3e37b1adU, 0x3d0011003d24dc4fU,
  0x3d64fffc3d5ecf69U, 0x3c9421edbd210d74U, 0x3d9b6a6abde3af52U, 0xbe3068c93ddfa4d7U,
  0x3e1fba13bdb19ff8U, 0xbc42f6e7bdb44915U, 0xbc903540bd28ccf7U, 0x3d805f23ba3fa017U,
  0xbe2839b73dd6981fU, 0x3a12052cbdbf2de5U, 0xbdc247cf3e117b7bU, 0xbd74eb3b39a57a5eU,
  0xbb34bdef3d80ab60U, 0x3b882e71bdbcb9c6U, 0xbd8812673d1d3811U, 0xbe36b9b2bd5d4830U,
  0x3d03ceb43cabae80U, 0x3e197df0bd9411f3U, 0xbe1ba7e0bd7668fbU, 0xbd1d127fbd210350U,
  0xbd760d1abcd28ed1U, 0xbd08983a3d7d776dU, 0xbd5318243cae79bfU, 0x3b966ae0bd18c589U,
  0xbddf52a8bd6fa092U, 0xbe2a78573da2e128U, 0x3da7af05bcfb43b7U, 0x3e0344c3bd2a6956U,
  0xbe2dc49bbd7f36a6U, 0x3c1cd1413d5d79daU, 0xbd4ec20e3cc4f102U, 0xbda5dca73c6dd918U,
  0x3c3f7be73d040dcbU, 0x3da97e66bda9a180U, 0xbc9f395b3d1c1a77U, 0xbde4508ebcc4ca48U,
  0xbe220ee5bd52898aU, 0x3d607d523d96810cU, 0xbca77560bc9e09e2U, 0xbc46775e3dbe831eU,
  0xbcf97ef03dfcce94U, 0xbd1ec3c2bdbbff5dU, 0xbd3fa6e03d1041a5U, 0xbccfe8b2be05dbe0U,
  0xbd5a75e6bdb7f1cdU, 0xbe1849283e126e65U, 0xbd93e7573a92e96eU, 0x3db1c8483e1427f8U,
  0xbb989ff5bcb28f2fU, 0xbdbf66fdbdc1885cU, 0xbd84ef4dbdb1186fU, 0x3de3f848bc845d6cU,
  0xbd9dbb783e2c4fc8U, 0x3d9836bcbe03df2cU, 0x3a8ce62d3d70cdacU, 0xbde8750a3e080385U,
  0x3c8d31e7bde50b74U, 0x3d4eed62bdd11ab7U, 0x3dd94572bdd12960U, 0x3d6f6141bd9b7e42U,
  0xbc624b2b3d896f57U, 0xbdc09180be4ff644U, 0xbd46514dbce70606U, 0xbe238ae9bd09cfb2U,
  0xbd80409b3d7417a3U, 0x3d829b903e167e1bU, 0xbe021fd13bdac6f8U, 0xbd9ba6873c8198c3U,
  0xbd7f5c133cc48733U, 0xbda796a83da5d1c1U, 0xbc283f61bdf05ae4U, 0x3be0766c3c673feaU,
  0xbe00f77c3dd42dc8U, 0xbe6db6c7bdc1d592U, 0x3e6882683ddf333dU, 0xbc840304bd74515bU,
  0xbe3f11d5bdca5f4bU, 0x3cbef5dd3e1fc9caU, 0xbc22d67f3d917887U, 0x3ccdfe0ebdddf015U,
  0xbd1bdd2cbe4816b9U, 0xbd966ab4bdfc75f2U, 0x3dfe3d7a3d661232U, 0xbd80e490bda7e3aeU,
  0xbe2e3f6cbd29cc3dU, 0x3e13c1cb3bd52822U, 0xbc172c5dbd8d6fb7U, 0xbde2792b3d89cc57U,
  0xbda8cb993decea38U, 0x3da01f37bd44a833U, 0xbe1ff6283c709ceaU, 0x3db35914bdce2d59U,
  0xbe23126ebddf17f8U, 0xbd31fd713cef278bU, 0x3c93058e3c829614U, 0x3e119ba5bc9b3d3dU,
  0x3d374eaebe1c5f37U, 0xbe2d1309bd991131U, 0x3d7a6e12bde7ccc0U, 0x3bd99e14bdb8f642U,
  0xbe002ccc3e0fdac4U, 0x3e1d76a9be1527d0U, 0x3cd2517ebc5809c6U, 0xbd78c6f73df344e2U,
  0x3dc0360fbe42b640U, 0x3e17087bbd347a98U, 0x3b55bdf5bd386bd4U, 0xbda5c6403bcda0b9U,
  0xbcdc22bf3d53b8b1U, 0x3d1e6606be09b15dU, 0x3dc54b38bc918b2dU, 0xbe206ab5be32bef9U,
  0x3d958dc2bdefe94aU, 0x3e5609b43d928535U, 0x3d38b0903d8547e2U, 0xbd3736b5bdd05406U,
  0xbcc1caa1be029714U, 0xbd474ffd3dca7018U, 0xbd268f2bbc90e21fU, 0xbd23fe5dbe0ec0b7U,
  0xbc4d3dbabdbd382bU, 0xbd9d6f53bda9a7a6U, 0x3e6d787c3d9522c6U, 0x3e110a54bd0c63beU,
  0xbdef01babd5930b6U, 0xbccd9eb5bca052bdU, 0xbd5093dc3df5ac8bU, 0x3c8ae3a1bbadb145U,
  0xbbb74a99be5ccd81U, 0x3dd7c893bdd1da1bU, 0x3d8ef014bd941716U, 0xbcea9a2cbd61bb1dU,
  0xbe1c9c87bcd43750U, 0x3d8b83cdbd7d65a5U, 0xbcca4e39bd6278c4U, 0xbce7df863ca02cd1U,
  0xbd34f4e73def04a6U, 0xbd8a00f9bdd244b7U, 0xbd9952d23cde74d4U, 0x3d9e6705bd77379fU,
  0x3bd250b13cb4fbd4U, 0x3c2229eabd8965bbU, 0xbcdbe338bdbc6020U, 0x3dcbdd933d8e5351U,
  0xbd5c38fabe0395fcU, 0xbd359506bd28444aU, 0xbc3e440bbd627336U, 0xbca3cf20bd88c9a8U,
  0xbe2565de3d630251U, 0x3dfc64e1bca274efU, 0xbcb8f474bc94015dU, 0x3d6815d03bd6d8a9U,
  0xbcb2f3ffbdaa39e1U, 0xbd085a65bce33a4fU, 0x3cf22cb9bd613bc0U, 0x3d7d0b73bc9a4059U,
  0x3d1e3a9ebd525d09U, 0xbe29b91bbc7e8043U, 0x3cb15851be1bcc90U, 0x3d9de8c1bca6ccafU,
  0x3da73b79bd3fcfc2U, 0x3cdf078bbe62c34dU, 0x3da18fb33c247e77U, 0x3de84e44be1bb682U,
  0x3c1f94ac3c2e0f73U, 0xbd26f03b3c1203f9U, 0xbda9780ebc972be9U, 0xbddc7fb93cbc3f80U,
  0x3d808bef3e05617fU, 0xbc8374e33d03726fU, 0x3c8560afbcbfd1caU, 0xbcfe5b97bd1efef0U,
  0x3dd528c2bd87ff55U, 0xbe36d1023da59545U, 0xbd240ec43c478f1bU, 0x3d2c534abd070fa6U,
  0xbd3efdd5bd0bfc6cU, 0x3c95fad5be0c5942U, 0x3df661e7bd8296beU, 0x3d80509f3dc6478dU,
  0x3d9539eabd0b524bU, 0x3d58cfe8be391c66U, 0x3bbf84bb3d724f73U, 0x3c122ab1bd7cd153U,
  0x3db026003d4d7f00U, 0x3d008aa83dc4bd68U, 0x3d308fbbbdc08989U, 0xbd9f0d00bcafe719U,
  0x3d5bb0dabe07e58bU, 0x3d335f05bdcbeb0aU, 0x3d8595fe3e2c52beU, 0xbb37ec07bb551ca1U,
  0xbd3cae12bdab28a0U, 0xbd6a7222bd81e8f6U, 0x3c07d99c3d38566aU, 0xbca352583ca1fa27U,
  0x3bb1d733bd2bf77eU, 0xbd9b2b9bbd2bfa65U, 0x3cbe002cbc3c47a2U, 0x3c10615d3dbb8cf3U,
  0x3ba90606bdd87e6dU, 0xbc9273163d07a2d4U, 0x3dc1e6f8bc9ba867U, 0x3d5de64fbd3983deU,
  0xb89492c3be407671U, 0xbe410b443db4d783U, 0x3d833c4abdb633b4U, 0x3dc50a613cda683eU,
  0x3d18b38dbd37d444U, 0x3ccae142be79bda0U, 0x3d6ec7253ca8b11aU, 0xbc7d847d3d568c64U,
  0xbb9fbd39bd56c1bdU, 0xbb4b6301be36adccU, 0xbd2428e1bc34d5b1U, 0xbd4df4d8bd3bfabbU,
  0x3dc1e4c1bcd148e0U, 0x3de3a2473cbacb0dU, 0xbd323e9abd6c01ceU, 0x3b47cfbb3cf49b91U,
  0xbc4d3021bd4a1fbaU, 0xbe4144653df5fc6cU, 0x3da78713bdba7fdfU, 0x3e16961d3d967dacU,
  0xbd8c4f22bdd13820U, 0xbe0aa94ebd6a2506U, 0x3e108cddbdbeae9cU, 0x3d8b3897bb41a519U,
  0xbd6454223dcd5a64U, 0xbd829f1cbdf80cdeU, 0x3c9888b5bcd29d1dU, 0xbd053d72bd6b6053U,
  0xbdc06d9a3c2f7475U, 0x3dde4efdbdf0a483U, 0x3d99ee67bd499d8bU, 0x3d31fb27bc0c8c77U,
  0xbd99892c3d7710f1U, 0x3c18b7b43d2415e6U, 0xbdb5ec3e3e0c65a3U, 0xbc81a0e53d61216bU,
  0xbcbd6149bcf7457cU, 0x3d31d0c3bdf2c8b7U, 0x3d8b886f3d562f7fU, 0xbc0ca44b3cf842a8U,
  0x3ccdbecbbd6463f5U, 0x3d95c308bc533b2dU, 0x3d9d8b0f3d479ca9U, 0x3d2147a1bd2de75fU,
  0xbdae1b02be030157U, 0xba1bd5b4bb69df66U, 0x3e2dee68bc399207U, 0xbdcfe0e9bdab2811U,
  0xbbe39d13bcaebbe9U, 0xbda3b7eebc829a97U, 0x3db3ba98be24cd2eU, 0x3d554ca1bd844843U,
  0xbd942d9fbdb0ec06U, 0xbdb81cacbe4698e5U, 0x3e1f7ea23da9e820U, 0xbd1d4fa8bde269cdU,
  0xbddfe8a0be06d238U, 0x3d9437aabe107352U, 0xbcfcf371bd0d71f1U, 0xbdabe68d3ce8c522U,
  0x3d4d44383d8e0ba4U, 0x3d08ad86bc7f35c9U, 0x3e04a2f6bde67129U, 0x3d533b663d959f83U,
  0x3d8f9d29bd90d748U, 0xbd96fe5cbbf4153dU, 0xbc7f5b7cbd3dfdf0U, 0x3afb7ec8bbb08eeeU,
  0x3d7b40c83d9069abU, 0xbd9123a6bbc75586U, 0x3dff3f75bdca12e5U, 0x3d5781de3cfed458U,
  0xbd9c9a72bd901441U, 0xbd2c6e2abdb2d6d5U, 0x3e0caa31bc852b5eU, 0x3cb7c4de3d70342eU,
  0xbd24e1d2bd8dec96U, 0x3dcee9553b464437U, 0x3e122cfc3d77961bU, 0xbcc78282bd81790dU,
  0xbcb840bcbd34c46dU, 0x3ceefbb0be032150U, 0x3d8a1470bdeb4ee4U, 0xbdb542f0bd83c5e2U,
  0x3d36fb93bd03a2d2U, 0x3e2071c1bd08a5e3U, 0x3ca6c5d33bc39216U, 0xbcd2169fbdea75ffU,
  0x3db884e2bd70a165U, 0xbded1ecf3e1e81a8U, 0xbd61ba1cbd7b1be8U, 0xbdaf240ebd43e0cdU,
  0xbe285db73c9a5ec4U, 0x3d3ea11fbd4566f3U, 0x3e6d5cd83d08771eU, 0x3da7e072bdcf6e9eU,
  0xbda85803bda94e13U, 0x3d15a6b13d02ae67U, 0x3d22e3613c0be7e6U, 0xbb466cb83dc1dfdeU,
  0x3db55ac33b9b848cU, 0xbd0fbb303c4872a4U, 0x3d0c25c6bda0a220U, 0x3d9919273d15c446U,
  0xbc1045d93c188878U, 0xbdc511da3be7f3f6U, 0xbd26a4d73acefc53U, 0xbd85062739ed79c0U,
  0xbd4a7a65bdb4959aU, 0xbc537cc4bd913ec9U, 0xbe5158a23c113230U, 0xbe0135a43d11a723U,
  0x3d30bbefbe2e3f32U, 0x3dd4bab0bd4d1b7cU, 0xbd358f7f3d9e5bacU, 0xbde397adbdde5c52U,
  0xbd07d882bdce6bf7U, 0xbe1f2a42be10aac8U, 0xbd6e5c91bdb1eef8U, 0x3cdb1a25bd1e9bbaU,
  0xbca2ff133ccc6f99U, 0xbe55543ebe11cf32U, 0x3df357c1bd8aaf2aU, 0xbdb7e7ecbd973fe3U,
  0xbce66e42bd2d4672U, 0xbd7e22013dda1b69U, 0xbe8e5d3f3d0072a7U, 0xbcfead74be4e1599U,
  0x3e0451dc3e583cd8U, 0x3d0bd21abb86cf51U, 0xbd3a2e47bc96dbadU, 0xbd68bbe93d99524dU,
  0x3cb7d3ddbc1264e7U, 0xbb991ef03d50a2c0U, 0xbcf9179abe129655U, 0x3e12197bbd2dbfa6U,
  0xbd96b9333c963c55U, 0x3e586ac1bbbbf299U, 0xbdb1b4e9bd511cadU, 0x3d36a804bdf222cdU,
  0xbdf46c9cbd6234c8U, 0x3be36530bda4bd84U, 0xbdf796133da10abcU, 0xbdd2a3893e608ee9U,
  0x3b809e81bdd8b035U, 0xbd6b01e13b962faaU, 0x3cbae4f93cd72f41U, 0x3990f0ea3dd62e74U,
  0xbd15cd5dbd255beeU, 0x3db6fc8ebc090ae0U, 0xbcd5a50fbe818a61U, 0xbd502b273d3c887aU,
  0xbd8ea707bae592c9U, 0xbd0b90cabc7b3c00U, 0xbd92b93e3d4e6658U, 0x3cf92657bdb7413dU,
  0x3d9cb47e3d39b95fU, 0x3c9096173ccd62f4U, 0xbe0822ac3d2f8881U, 0xbe4f4429bd286c97U,
  0xbd91687fbe0f16f4U, 0x3ca5c529be371eaeU, 0x3ce45260bdc87cd1U, 0x3dbe89d13c3d8573U,
  0x3c3dd6eb3ce425a6U, 0xbd28eb4f3cfb36f2U, 0xbd0ebaecbe181411U, 0x3bcd47793c97f02dU,
  0x3dc7275e3c592ae4U, 0xbe35b85ebd6babe5U, 0x3df52cd03c81b84eU, 0xbd2d32f53dd6d6e4U,
  0xbc3fdbdaba0b96a2U, 0xbdb24bc7bd95a80fU, 0xbe6995023d8a1394U, 0xbd8f9198bcb34b6bU,
  0x3e1a0d6a3e36f1cdU, 0x3d7592da3e314c05U, 0xbe14e0443b843162U, 0xbcc9ded13e107324U,
  0x3d5ed125bba9d260U, 0x3c86552c3d7f3215U, 0x3d250ab2be089726U, 0xbcaece263db0ea55U,
  0x3d1c31ae3d82389cU, 0x3e1e4bf53dba8177U, 0xbdcb90efbcb45e46U, 0xbcc97c9bbd5841a1U,
  0xbd0e8e463ca5b4e2U, 0xbd3416773cadf753U, 0xbe0f7f49bc5354a8U, 0xbe2ae0be3e10cc54U,
  0xbb90df72bd3a79e8U, 0xbc92dcbcbd7a3c64U, 0xbd76c9733d83d787U, 0x3d7f412dbc3420bcU,
  0x3d978153bd06dfb3U, 0xbd57b2d8bbdaf149U, 0xbd8f916dbe9d9cbaU, 0x3dab5a233dcebf17U,
  0x3a9d7e3c3c493d7fU, 0xbcdbf74c3c364d44U, 0xbd30b860bd3cc8ccU, 0x3d626ae4bd2e6105U,
  0xbcad0720be17d379U, 0x3c941f17bdba7d77U, 0xbde7816f3e025f86U, 0xbe25b10b3aa4654dU,
  0x3dafbf713cbfe780U, 0x3d2fab26be271012U, 0xbc1498473d46e813U, 0x3d150579bd89814aU,
  0xbdab6d80bd8db1f5U, 0x3c7d4e973d67eacbU, 0xbe10e31bbe0a78dbU, 0x3d2aa1983cf33d0cU,
  0x3dd123db3d2d88cdU, 0xbd58a59ebdcb55fdU, 0x3d5927f73c468defU, 0x3d3d1c533dc1265bU,
  0x3de3b16d3df42695U, 0x3bceac083decc51fU, 0xbe83dfcbbca57855U, 0xbe046e1c3cbfee88U,
  0x3e1d6d113da47466U, 0x3de68dd73e145683U, 0xbdce5055baafc7a9U, 0xbdbab9ed3c625f89U,
  0x3d91d832bdbb0e7fU, 0x3cd2588b3e3a2412U, 0x3caece59bd82b205U, 0x3df29c693db56e5cU,
  0xbcd93fbe3d3c653aU, 0x3e542533bbd44e36U, 0x3d9650d1bd10a887U, 0x3cd87bd2bddd090eU,
  0x3d016f5bbb9bacd9U, 0x3d1c93c73cdd67c0U, 0xbddd07483d49f205U, 0xbde92ead3e5dc473U,
  0xbd5832123cbed338U, 0xbd4ed654bda83ea0U, 0xbcc0c0ebbdce729cU, 0xbcb06d10bd169495U,
  0x3d9939c23d23a4c4U, 0xbe149ec53db79a6aU, 0xbe28cb1dbbcf2237U, 0x3dd4e66b3d01b20cU,
  0x3c2328503d5ef508U, 0x3d809e993d05e1b0U, 0x3db41769be0466c1U, 0x3b9ae8853d6f2b56U,
  0x3d113cd0bd1211acU, 0xbcb477b5bc0b6a3cU, 0xbdb174d0bcbdf81fU, 0x3dac94f63ce81f57U,
  0x3d8f6cdf3db18b4dU, 0x3d7abfffbc14fd96U, 0xbdd5c11bbdf95c85U, 0x3d89e357bcc805edU,
  0x3d99c99f3db216e2U, 0x3d54cb55bd380402U, 0xbd1099483e5909e2U, 0x3e423638be24d4c7U,
  0x3d0b79fcbd676675U, 0xbdbfa00fbc50f231U, 0xbdce84efbd9263f7U, 0x3dbe569cbc2ad537U,
  0x3d2785e73cc9286aU, 0xbd83f6463dc73888U, 0xbe19f35bbca4e5e7U, 0x3e3c370abcb8faa2U,
  0xbdb0b5c63da38971U, 0x3d734a7bbd181919U, 0xbd2722583d553f69U, 0xbcab96a5bcdfbc58U,
  0xbdc559c7bd4b6f9bU, 0xbe0c66dcbd776071U, 0x3d77a24a3daa7836U, 0xbcb414c1bdad0561U,
  0xbdf483da3ca8f0f6U, 0xbd8acb24bd879e36U, 0x3dab4516bd4db72cU, 0xbb909e753df907c6U,
  0xbd31f0fdbba28fa7U, 0xbcd4a33abdc3aab4U, 0xbdf7ee443c1ae053U, 0xbd8b83763c8c124eU,
  0xbdd43d613c74becbU, 0xbde3a583bd91387fU, 0x3ddfd1d1bd905455U, 0x3d4e30e2bc47c8fcU,
  0xbdc26bea3e12586cU, 0xbe40e74d3d517edfU, 0xbe20aec33d6a8393U, 0x3e1144953cd1025dU,
  0xbda8987e3d58fb02U, 0x3d965e483d2747c5U, 0x3cd442e4be0269c0U, 0x3bf2aa05bd24dc03U,
  0xbd9cbe4abe27ef62U, 0xbcf57db03b87da92U, 0xbdcd51493d14a461U, 0x3cb69fdcbb7c996aU,
  0xbc76ad263de19488U, 0xbd22f44ebd482651U, 0x3ddd673fbd4dd638U, 0xbd04420bbca3ceceU,
  0x3dcdd9603da15d56U, 0xb906a77ebdf0bf00U, 0x3c9f7b9f3e7f18e2U, 0x3e6bac8b3c983794U,
  0xbd8533593d99c8e9U, 0x3d2778353d48ad17U, 0x3cd5911abd7f337fU, 0x3c52fd8ebbf99ca0U,
  0xbe22b077bdb84f13U, 0x3c359b713de2bddeU, 0x3da01d243d853b98U, 0x3e84dca3bd2af4c9U,
  0xbdf274583d70cb77U, 0xbb2d80133d222ea8U, 0x3b8486d1bcc10d0aU, 0xbd666730bcc14623U,
  0xbd7a5666bd49dc58U, 0xbd8c45b0bd29980dU, 0x3dc933213e1ce161U, 0xbd1784c23d062bfcU,
  0xbd6f91263d40e8f7U, 0x3d119ffabbb7a398U, 0xbcefa9da3d6b42bfU, 0xbca1be143ceac22bU,
  0x3dc5389bbda1c160U, 0x3da180533b8b52c1U, 0xbd8be4f63dc7a9bcU, 0xbd632fb9bd250c5cU,
  0x3cb6e7a0bd7fd784U, 0xbd9b728fbdb34438U, 0xbca192bdbd3b1598U, 0x3c980a89bcab3e90U,
  0x3d8187093c244106U, 0xbe2bedf63db371a0U, 0x3d3a82c73b48eb8aU, 0xbc98c3283da78446U,
  0xbc0a93883e28a898U, 0xbd96f9a6bd1d95a6U, 0x3e2bdd1fbac14b37U, 0xbd31dd90bd81c975U,
  0x3dad9398bd0c1fe9U, 0x3d0f937abcf3d14bU, 0xbdb88f8fbd2fc3ceU, 0xbc13c273be0ef679U,
  0x3d01deb93d93b611U, 0xbd1f8a5fbc8c5153U, 0xbd0cd417be14cb48U, 0xbafc579abdb21decU,
  0x3d0da4733e0ab66dU, 0xbc97e489ba0b5b31U, 0x3dd144263dd5ab52U, 0x3cbcd37c3d4de019U,
  0xbdd25fb2bd9b9644U, 0x3d90dc6ebd18ae36U, 0xbd037d0ebbbe8227U, 0x3d1980fc3dec6dceU,
  0x3d829ab4bda89452U, 0xbc7f5da13dd83f9bU, 0xbd96bf74bdc85125U, 0x3e011cdcbd4abefeU,
  0x3d8cb7dd3c1f5ba5U, 0x3d487b713d52204aU, 0xbcd485f9bd50ded8U, 0x3c990e693cce0e91U,
  0xbda92f153db03060U, 0xbde03e01bcc5fa48U, 0x3da912c23d6f0033U, 0x3e1bbc0bbcb616ceU,
  0xbe1b10263e2a8e8dU, 0x3d7eaae53cdf2f32U, 0xbd2d41383b059da9U, 0x3b5620823d9e1d08U,
  0x3e1f1e7c3d06ad32U, 0x3d89ec44bc9a3517U, 0xbc5069dcbd74a4c3U, 0x3c1f49e6bdf42b6bU,
  0xbd1d37aabd86c987U, 0xbdf475ab3d905b8eU, 0xbdc1438cbcfa657eU, 0x3e64d4ca3e382bc1U,
  0x3cb8185fbdc08f76U, 0xbdbf0cedbc8bbc58U, 0x3caadbc8bdc34596U, 0x3d31d0a2bd701c25U,
  0xbd3c0d803d00feb9U, 0x3dc5dd99be1e322bU, 0x3e578c683d85c13eU, 0x3d67448c3d383195U,
  0x3dcebfd7bd82c8baU, 0xbc08251fbddf19cfU, 0xbd76cd54bc1f3f62U, 0xbe120c60bd6a3c5bU,
  0x3d857777bdc5f78aU, 0xbced25af3d1787faU, 0x3da266a6bd39c0e6U, 0x3de81d6abc914959U,
  0xbd024e36bdf918feU, 0x3dbb147d3d1603ebU, 0x3d2c9f1cbdc3b5c8U, 0xbdcab973bd783944U,
  0x3db8851abe024879U, 0xbdeb3da6bda66f52U, 0x3da81faabbe54fb6U, 0x3d6c44ecbde8d4d2U,
  0xbd1643273de6d2beU, 0xbc38201dbdb224f2U, 0x3d917850bc7cb9aaU, 0xbc341f14bd3d73ceU,
  0x3c66888d3d2c145bU, 0x3b4cc6f4bd9f639dU, 0x3b1ee74d3a9a6896U, 0xbcc110c4bdc292d4U,
  0xbd51ed6ebda861bdU, 0x3daab1e73d558e78U, 0xbd3323c1bdf8638bU, 0xbe4dd961bc07a1a4U,
  0x3e089b67bcb796ceU, 0xbcf81cf23d74dac4U, 0xbe097fdabd676b43U, 0x3c23617cbd9128c0U,
  0xbd953cb43c9e5260U, 0xbcf0ad4cbc0534faU, 0x3e9575423d5db210U, 0xbcd57154bcea53acU,
  0xbd8b59e8bd6edd84U, 0x3d0de57c3d87bf56U, 0xbce62374bbf90b4eU, 0x3e2d2c623d860db0U,
  0x3d332598bde1f026U, 0xbdc8a9bdbd985e22U, 0x3e007032be0a60b2U, 0xbcbda7a63d8ae959U,
  0xbe212c563b0a5e25U, 0x3d588773be2076bcU, 0x3e047e78bc94a993U, 0xbd1a8d303d4e3049U,
  0x3e1b5915bca87a88U, 0x3e00b851bd8be36aU, 0x3cd932b8be14d28cU, 0xbe01d54bbcf651fbU,
  0x3d9830983a79ad2bU, 0xbc559aa0bddd1fe0U, 0x39db0155bde5b15dU, 0x3a908054bd964366U,
  0xbd8ef4c03ccd7389U, 0x3ce0b8ab3cd3e4bbU, 0xbd863e6e3dc3d81fU, 0xbd751aa0bd5af7faU,
  0x3d892acdbd56c255U, 0xbd80ca723c7de653U, 0xbd3c89c7bcec117fU, 0xbb9d25debdd1d9a2U,
  0xbd86a5be3dd11e18U, 0xbdd940883d87606dU, 0x3e7924553ca3372aU, 0x3e021d223ca25a3aU,
  0xbd336dc93d1929fcU, 0x3d2e3e0dbd40bb38U, 0x3dd13cf63cf800c4U, 0xbe2b8c97bd9d85adU,
  0xbdb7a421bdb09918U, 0x3dfc92fa3d99c3deU, 0xbe07af6d3d1ca7d7U, 0xbe633ea2bd8797d7U,
  0x3dd332a6bdb8c28dU, 0xbdd636203db88cd3U, 0xbe47a62d3c3ac5d4U, 0x3de6b75cbd780d9dU,
  0xbdb1bb81bcae6ad2U, 0xbc5bdd7d3cf1427eU, 0x3e803c1abd8efb46U, 0xbd88164bbd084bfcU,
  0x3c998c1d3d391ff9U, 0xbd342b323c8d02d9U, 0x3c69a594bd549a8fU, 0x3db7da08bd05f578U,
  0xbd0d45aabdad3368U, 0xbd8c7537be0afd59U, 0x3de8e0d0bc9e2901U, 0xbd93129abd5fbe83U,
  0x3d3bd057bdaef216U, 0xbc6174d43bba04f9U, 0xbc94642bbdc6a46fU, 0x3abcebf33dc39c46U,
  0xbd24b9013d71bf9eU, 0x3d4126623c87d6cdU, 0xbd125bf9bcdab5c7U, 0x3d3b5a82bcba7506U,
  0xbd41dccdbd44d3caU, 0x3ba28671bdcb2278U, 0x3da505a1be0a864dU, 0xbdf12d493ca418bcU,
  0xbdce7d543d8ab219U, 0xbcd49317bcb0c2bfU, 0x3c068b1b3d8f39aeU, 0xbe3f53d9bc46ebd6U,
  0x3d6c2fecbd2e5b84U, 0xbd4ca8393d2a74f3U, 0x3d66ed9ebce98e57U, 0x3d862bf33cffe177U,
  0xbe1764a2bce28553U, 0xbe0341a7bdd1f356U, 0x3d820c803e1f1ef7U, 0x3dc2286fbc59381eU,
  0xbdac8a4f3d890e56U, 0xbd5d67a5bd6dfb31U, 0x3de06101bc990596U, 0xbdafec463d16bcfcU,
  0xbd85572cbc96902cU, 0x3e0080663d256555U, 0x3c9b6518bdaf66ffU, 0xbe32535b3db62a98U,
  0x3dad8419b92dfd28U, 0xbd68aa5ebd569e05U, 0xbd438f673d6dc387U, 0x3c1eb461bcfe3e77U,
  0xbc41ce70bda60c49U, 0xbe11f26abe065147U, 0x3dd4057d3d5341c0U, 0xbaf630e0bdf290bcU,
  0x3dcd5ad93d0bac03U, 0xbca3a5d8be11b41cU, 0x3dbba91c3d2f1ff1U, 0xbdd16ea9bb87319eU,
  0xbdadd8443c61b226U, 0xbd2b8d8b3bffe7aeU, 0xbdbf253e3d440d18U, 0xbe73398dbdb06c52U,
  0xbccd5d3cbcad2e3bU, 0x381128c03dbabf49U, 0x3da78098bd9f7afaU, 0x3d241452bd8184ecU,
  0x3d0ece873d8fe821U, 0xbd82c80dbd702b14U, 0x3dcac03ebdb59e1eU, 0x3d3dc6b5bd08e62aU,
  0x3d092a5d3d7aa5ecU, 0x3de2b8033cd51bb3U, 0x3e04010ebd495687U, 0xbd2189babdaab575U,
  0x3d9ba2433daef093U, 0xbcbad3f6bd3a884cU, 0xbd089e083de268afU, 0xbe878754bddaa15aU,
  0xbbfefe393c78282dU, 0x3cc2f68f3d1bce5eU, 0xbe1a418ebe20a5a0U, 0xbd325ab63d6eb279U,
  0x3cdbf9903d766c44U, 0xbd462271bc0c9cf9U, 0x3d9b43823cca0607U, 0x3e06dae1bd8f5948U,
  0xbdfb57c53b92a878U, 0x3d3431913deb0d15U, 0x3d4340c0bd8950f7U, 0x3e25e0d83df10302U,
  0x3d8d8ecc3cef1c5aU, 0xbddf25ba3cc33105U, 0x3df4a1593cdab776U, 0xbe1f2bbf3c8b8f43U,
  0xbc612214bcea92edU, 0x3da359b4bdb7e780U, 0x3df3b48ebd123d45U, 0xbc16746e3e19be4fU,
  0x3d9a5f0a3cb13cb3U, 0x3dd72733bd84356bU, 0x3d6a3d3dbc4e458eU, 0xbcc35512bdec3b1cU,
  0x3ca08dbd3c56ffa8U, 0x3db8c56dbd96f6dcU, 0x3dedff5cbd81c7aaU, 0xbde31aa7bd0fecceU,
  0x3d6b53d23d92b0b0U, 0x3e1fd0c73dfb883eU, 0xbe0304bf3e3e5dc5U, 0xbe859e8bbdedbcc6U,
  0x3e490dc6bd8cd3f3U, 0xbe5a0a433d9e6d73U, 0xbda80d3ebe0642daU, 0x3d4dddc9be210174U,
  0xbdf2433b3df5e459U, 0xbe0d245a39c3e424U, 0x3e83e0a43db8b513U, 0x3e170f67bb9be279U,
  0xbd08ca83bb2eab40U, 0x3d8a3b4bbdea3f15U, 0x3e06f9803c1548d8U, 0xbdce4a90bd86c81bU,
  0x3d888a823ce716acU, 0x3e4e5c0b3db5192fU, 0xbcae917c3d97c596U, 0xbec23a8fbdf4f2b7U,
  0xbc8eefed3d5c2decU, 0xbd69ef033dd46cf2U, 0xbe56571bbe352042U, 0x3d3be202bb00c88cU,
  0xbc97264b3e004139U, 0xbd0df958bde55b08U, 0x3e3991173e0e4a3dU, 0x3de8ff853d3164adU,
  0xbde10c74bccfbe6aU, 0x3cd3ff25bd3b4218U, 0x3c978bc1bd7bea02U, 0x3d94f85c3d80700bU,
  0x3dc2f9b23d6388acU, 0x3dbaec5fbd45be4aU, 0x3c8a16443d829938U, 0xbe71e063bda31ac1U,
  0xbdc9f9c1bcc7d8a3U, 0x3d59bdb63d68cfdfU, 0x3e260cb5bdb6b6c0U, 0xbc2d583f3d9f1b5fU,
  0x3e1e8f62bd347bedU, 0x3e3e1cf63dad7acfU, 0x3dae7eebbd2a7eb3U, 0xbd739cab3d7282e7U,
  0xbb8d0ef53c4ede15U, 0xbd40e7e6bd7e1e3dU, 0x3d4636183b821b76U, 0xbd8c778a3d002b71U,
  0x3d5612743dd7a7e3U, 0x3de0e643bd2f025eU, 0xbd3d1a203e12e816U, 0xbe63831e3d5c7b49U,
  0x3df97fea3a94e481U, 0x3a6609dbbd2500a0U, 0xbdd4caf1bd802210U, 0xbd1daa09bd3ea887U,
  0xbcd30105bb7de3eeU, 0x3c39ec28bdb04699U, 0x3e773bcf3d594335U, 0x3e0dbc0bbdd96e5aU,
  0x3d2425f6bb9c302dU, 0x3d38ec9fbd4742b3U, 0xbcbc90203d4328d7U, 0x3cfa4db8bda84db8U,
  0xbd20d99f3d457dfcU, 0x3e59ce3e3e0b613eU, 0xbdf3de523c437d4dU, 0xbe34d4623ce2f85aU,
  0x3d4b10a4bca48873U, 0xbe1d578ebc88cfa9U, 0xbe049c19bd23a5a1U, 0x3dd18f7dbdca1b79U,
  0x3bc5cb933dd315e8U, 0xbd6d01cbbdfb8736U, 0x3e3b205d3d4d7a00U, 0x3e304d4cbccdc004U,
  0xbd9725ec3db7c54aU, 0x3dab2f343d52a1deU, 0x3d34a8213b5b1f67U, 0x3d4f84e3bcacb3f8U,
  0x3d3c7835bd435798U, 0x3d5a1735bc40d16aU, 0x3d13f2f33c817999U, 0xbd92d9403d3b1575U,
  0x3d78bb0e3df54bb7U, 0xbd35533bbd4683b5U, 0x3cfc42e5bd3557afU, 0xbddca2813da68a77U,
  0x3b905f4bbdace036U, 0xbd009fac3dc68afdU, 0x3d5c63f43d99551cU, 0xbcd22bfbbde2a7c0U,
  0x3dd9c336bd9f2449U, 0x3dfecd55be08ffc8U, 0x3c047ed3bc2986c5U, 0xbd9a89f4be0cf819U,
  0xbdc2ba08bcaa4ae9U, 0xbd600bebbd57b382U, 0xbdec1ea43db2a6ffU, 0x3e2d771b3d89d1f2U,
  0xbc4ed0213dc947c8U, 0xbe0718ddbe0eaad1U, 0x3d6e9146bd18d323U, 0xbde6b46f3dabd3f4U,
  0x3dcee2de3c339a8bU, 0xbe2efd7e3da683e7U, 0xbe05bc2a3dafb6ecU, 0xbc226c64bdb7dd32U,
  0xbc433d613e57c26aU, 0xbc2f7d523e47235eU, 0xbd8f8ff1bd7ed07bU, 0xbe03a13f3ca987e5U,
  0x3ccd9d403cd19f19U, 0xbdd903713e12a0daU, 0x3d9392103d9d0e53U, 0x3e22cb123d953f4eU,
  0x3d5cc780bd9ef528U, 0x3e0c9f4b3d54171eU, 0x3d0ad2f93d3c69c4U, 0x3cfd49693c561c08U,
  0xbe043d7a3c0d26feU, 0x3d245308bd0b9694U, 0xbce595393cbc3d93U, 0xbbd640cf3e724e73U,
  0xbb98143d3b8e767dU, 0xbda2ea71bdd77e0fU, 0xbd62d772bd141cabU, 0xbc8203583e090467U,
  0xbc128ff7b9a458b7U, 0x3cc8ceff3dcf584cU, 0xbc0f6addbe2da100U, 0xbe528981bd95feceU,
  0xbe25bf66bdb40338U, 0x3b68c3cd3dbd26c2U, 0xbd32d59abdfe0f55U, 0xbd9e9b503c8446e6U,
  0xbe195854be36f624U, 0x3d9213bdbdd8d969U, 0xbcc20855bd839147U, 0xbc03c6fdbdd26289U,
  0x3da106283d9129a2U, 0x3dbc193dbd91ea34U, 0xbbc6ea123da967f3U, 0xbd866444bd907557U,
  0xbd7c973fbd2e150cU, 0xbc70c20fbda8b422U, 0xbbb851c73c99e448U, 0x3cf77dd9bd2d847dU,
  0x3d0857bbbd8cd555U, 0xbdb04eabbdd8e1a1U, 0x3e01e82c3c1f8b21U, 0xbd3a090bbcf4d653U,
  0x3d60f55e3cd9edf8U, 0xbc718559b91f5406U, 0xbe2617d1bb06e189U, 0x3d6649e03dc0389bU,
  0xbcea64453e6604aaU, 0x3c6c31253a2340ffU, 0x3d19c6afbd78f0bdU, 0x3c139758bcff6628U,
  0x3ca1191b3d3b3b4fU, 0x3cfbc3a63e380363U, 0x3d901f503e034568U, 0x3e29f2b7bd04b227U,
  0x3d036801be079908U, 0x3d5427d4bca7e5fdU, 0x36b523b43c950fdfU, 0xbdeb49b0bdb434beU,
  0xbd898f123d5c8c5aU, 0xbd66a8cabc54a6ffU, 0xbdf19df2bd1ffd32U, 0xbdbfca9e3e47795eU,
  0xbd15a50fbd03b1e0U, 0xbe15acc03d189e91U, 0xbd541b0abdb6be7eU, 0xbd9e688d3d233a38U,
  0x3d6eca34be0aa366U, 0x3be680523c1ca53aU, 0x3c4c626cbdcaac65U, 0xbe459e3fbe02cb82U,
  0xbcea61f7bdc9cba1U, 0x3dd9bc4f3d033f5aU, 0xbca521b6bda52dfeU, 0x3e00d2fbbcc59622U,
  0xbdfcf737bdd25901U, 0x3a20658fbdb87546U, 0xbd2ba2f93d86da33U, 0xbe45e15b3c1296dbU,
  0xbd8f24773e279c00U, 0xbd0862abbd9e7401U, 0xbbea804f3be6b048U, 0xbc680063bcd5d7baU,
  0xbcbc41493e1225fbU, 0xbd1016fe3d4af250U, 0xbdf3f33f3dcef0ccU, 0x3e0596923d1e815bU,
  0xbd9ea5d73d8f9c65U, 0x3d83f341bdcd9f70U, 0x3dc83da53dbbd9ceU, 0x3d8724bb3ddf554fU,
  0x3c8dc1c7bd97a25eU, 0xbd9a2249bc329d93U, 0xbdbdcab1bbeb4889U, 0x3bdb93893e05c4cfU,
  0xbb90e1cf3d0ffdfcU, 0x3d1497433d199d68U, 0xbbe7cf433d6fccc3U, 0xbc3206673e029064U,
  0x3d6c14b1bd966b0bU, 0xbda4b8953d922243U, 0x3d5d6bcf3c324637U, 0xbcd976e13b51dcffU,
  0xbdd776b7bd6ced61U, 0x3d974deebd9ebe0eU, 0xbc3210aebdf04eddU, 0xbd5bfa74bdc93ffdU,
  0xbd865002bdd9b39bU, 0xbda6b9c0be6e6068U, 0xbdc1c5c1bdb8c8b1U, 0x3cdfe88e3e132b20U,
  0x3d421beabdb4dd21U, 0xbd980b193c94b6d2U, 0xbcfb30923c2d6a44U, 0xbd9ecbc63d67fca0U,
  0x3d75e63ebe22294eU, 0x3d80d11d3dca135bU, 0x3cc61b24be88de3eU, 0xbdc88473bc397cd5U,
  0xbdc8fe95bd92596aU, 0xbd318e40bcf855f2U, 0xbdca36b0be16c72aU, 0x3dd61e75bbf16d3bU,
  0xbd1715cd3ce30465U, 0xbd49e867be58507fU, 0xbd47fda63cbfa47cU, 0xbe0ea1a73db07a53U,
  0x3d69b3493e04f071U, 0xbc3a6abbbd49e049U, 0x3bf9aebcbc9af155U, 0x3cb5a429bcc2bdccU,
  0x3d8b1315bcd37debU, 0x3d2adfeb3d205f35U, 0xbda82b5c3b881042U, 0xbc942c3ebd6224f7U,
  0x3ca53fc03da08007U, 0x3dab1727bdb2520cU, 0xbb4c56edbdc698ceU, 0xbd1cc434bd13242aU,
  0xbcab1b783df427a1U, 0xbd0eb9bc3e36afb8U, 0x3c81de6fbd9a45a3U, 0xbdaa2e213e0df497U,
  0xbd3fc82d3cfca83cU, 0xbc2144ff3d5782eeU, 0xbcc95470bd6b9ca7U, 0xbddaaa30be099732U,
  0xbd56b4d4bc2eac3dU, 0x3d9a7a4d3cb247b0U, 0xbdf592173ca24827U, 0xbd5e924c3d4e505fU,
  0x3daed8123ba63718U, 0x3ba45641bdd31159U, 0x3c977b0cbd1eef0eU, 0x3da89a163d5c6138U,
  0xbdf095b43d70ef1bU, 0xbc000a673dd1afd8U, 0x3c866f473dab362bU, 0x3bf9c26d3df3363cU,
  0xbc8997be3d680775U, 0x3d3d9e2fbd0a7ff9U, 0x3dfd6c2b3d9d8a0dU, 0xbdfdbd15be360b9eU,
  0x3c130c74bdbdab35U, 0xbd77f8febd0ce5f7U, 0xbd2e6a62bdbca7d8U, 0x3ac86213bd9539d8U,
  0xbdd14cc73d74b9d7U, 0x3d292731be227d28U, 0x3cf2c560bd751235U, 0x3da09961be19968bU,
  0xbd7bd5d23befb806U, 0xbdcd5dc23bf4b513U, 0xbc1dd4503c010f63U, 0xbe22d55c3c632928U,
  0x3dbd9e403d37fea5U, 0x3d425d3d3d85f457U, 0x3d77a0773d465ea0U, 0xbd7854bfbd967989U,
  0xbc94e3c5bd987f89U, 0x3d32f8c53d485607U, 0xbe167eb0bb592560U, 0xbd47eadd3cff9f4dU,
  0x3d7b17c5bd330e9aU, 0x3d25d1b0be121015U, 0x3d6158503c7fb071U, 0xbce833bd3d307cbbU,
  0xbd4e9c0b3e1e3bd4U, 0xbd7eab58bd864b27U, 0x3d3f4e76bcd2fcd3U, 0xbd6cd1b93c1207fdU,
  0xbc521e1b3daa2f5fU, 0xbe1009533d90e94aU, 0x3d1e10c5bc561238U, 0xbcc3bccabe3342f8U,
  0xbd2994d1bd9fa131U, 0xbd7cb16bbd986722U, 0xbe11925d3bf4ca90U, 0x3dafe0d8bce8f2ddU,
  0x3d9b1564bd4158e4U, 0xbc5ef5a43c94bd47U, 0x3d3965fc3d6e18a8U, 0xbb869bc23b8ea1eaU,
  0xbe02b2093c4c3f41U, 0x3d0132d53dad3f39U, 0xbdb13ce73d63710aU, 0xbb275412bd9040caU,
  0x3d3f0de3bdb3182fU, 0x3c390cd03be8ba89U, 0x3e22f979bd71eb53U, 0xbc9b51b3be3846b6U,
  0x3d008194bcaf0134U, 0xbd8a02d63d355527U, 0xbce30b9cbdb4ba9dU, 0x3d9427d9bcf44e72U,
  0xbdae05a63dfb78abU, 0x3c00c3cabd972ccdU, 0x3d166579bd2d2c37U, 0xbbb289603ca6d2ccU,
  0xbe0711ab3e03c775U, 0xba2b8b3d3cb29927U, 0x3c1e15cfbdcd0aa7U, 0xbd62158dbdd6e378U,
  0xbd44f2e13da2a377U, 0x3cb6e5c7bdb923e6U, 0x3d4884f33cc92e27U, 0x3d0c9c9ebdc39da9U,
  0xbca5c53e3d82eaf7U, 0x3d8b1dd33ad36d91U, 0x3c3d3a4c3db046d9U, 0xbccb63f13bf0997aU,
  0x3e06505cbd08e7faU, 0x3d8257ffbcb73c02U, 0xbd6ec5ff3b9e7b35U, 0xbc9e8a09bdd8ef3aU,
  0x3db65dba3e06fa0bU, 0x3dda87113d87769bU, 0xbd671a3f3d771a04U, 0x3d70b960bcad0265U,
  0x3df39b3d3d0e2bf1U, 0x3d0b35dd3d9fdcf1U, 0x3df3161a3d8ac32aU, 0x3c9ab54abced0379U,
  0x3d3abb37bd1ac87cU, 0xbaa4c49abca90d77U, 0x3d56142ebd8c2bddU, 0xbd781c16bda0392eU,
  0xbe19751639c1f742U, 0x3ddc4965bdc093fdU, 0x3cf6ffb8bdf45eeeU, 0xbd0f95b8bbd3a96fU,
  0xbd11a707bd80ee9eU, 0x3da3cd953e4f0be6U, 0xbccd92a5bd3c69efU, 0x3d8f2a223daa93bdU,
  0xbcf57ec5bc2b8994U, 0x3e0b4f41bda4fcccU, 0xbc6f0a5e3df98ee0U, 0xbda6d39fbb396689U,
  0x3d1544b5bdbdeb69U, 0xbd5d4ae2be1bb5ddU, 0xbc77d6b23cd90ce6U, 0x3cb29b8cbd9052b6U,
  0xbd895cd83ce8dc82U, 0xbd8d9ad9bd58af7fU, 0xbd2b9fe7bce14a2aU, 0x3d6b7e94bdc6cb8dU,
  0xbdea60d63ce3de14U, 0x3d417fae3d73c879U, 0xbd3eb4debd7b5a6fU, 0xbca07f35bd4625adU,
  0x3da33f52bda7f0f2U, 0xbdce5e95bc4d3f07U, 0xbdd66a97bdbed37cU, 0x3db750cdbb34c4bbU,
  0x3d4ab8693dc0ac77U, 0xbdf92571bd8bce57U, 0xbcea79e73dd99ec9U, 0xbe336a74bd26e179U,
  0xbe2bf4ad3dcf44d3U, 0xbdc81774bcd62df7U, 0xbb2a66ffbd35a045U, 0xbd5c59c83cf7eaf1U,
  0x3cf883f8bd860718U, 0x3d5f771e3d129402U, 0xbd7e7d5cbd17a7b8U, 0x3d612caf3d828491U,
  0xbb86bfe9be0103d0U, 0x3d11b00a3d1dd7d3U, 0x3da26bd7bc12cefcU, 0xbbfc35dabd970748U,
  0x3dcdbe7c3d817c42U, 0xbddbfc64bd298eadU, 0x3d0b98c03e10afb2U, 0xbe1320ee3d14ae20U,
  0x3d94feccbd890bedU, 0x3c2e5240bd1cc874U, 0xbcf379d2bd0f202cU, 0xbd22793fbd9ab0daU,
  0x3cf196e53e0527ceU, 0xbdc3367fbd775217U, 0xbd7221933e16fff5U, 0x3e361b133cd7078fU,
  0x3d5493d2bdd0520fU, 0xbd079c82bcad9f08U, 0xbc0fcb493c310411U, 0x3df91a0f3df265e9U,
  0x3d0902023cb188deU, 0xbd006f5fbd42672fU, 0x3d380c94bc6a650eU, 0xbc7efe4d3c3f3fa6U,
  0x3d8c4a98bc3fc867U, 0x3d190cbfbde8ee83U, 0x3dcb8fee3d00219fU, 0x3c34c8133dcccb00U,
  0x3dafb965bca83284U, 0xbd0cbfa73d8edc08U, 0xbd4bfe37bd4b9fb0U, 0xbdf36afc3e015d66U,
  0x3e0af43bbd1d3078U, 0xbd39194fbd9c9ba6U, 0x3d81e9903db0d13cU, 0x3c05e7bebc3364a0U,
  0xbdbe0fcfbbd960c0U, 0xbd1549f13dccadd8U, 0xbd93b49c3d894f6cU, 0xbd3989903d6c962dU,
  0xbdb92f253e0226f1U, 0xbc5140b73d3b4a9fU, 0xbc9c3ecbbdcb1f96U, 0x3c2ffca63b6289beU,
  0xbd45f34f3d7bdb94U, 0xbe125f523e0199b2U, 0xbc9bae0d3c757477U, 0x3ca73b653c151021U,
  0xbd63d0fcbba0f428U, 0x3dd556863c88d6efU, 0x3d3ce58e3d3bac54U, 0xbdc9e0753d66e53fU,
  0x3c66222bbdced939U, 0xbdb164adbe344c7bU, 0x3d59b87d3e2aca20U, 0xbe1d3b92bdb7e015U,
  0xbd87f83dbd18897eU, 0xbdf41069bd7397a7U, 0xbe28f4de3a632d2aU, 0xbc701bfc3ccd53faU,
  0xbd1896ea3b46b5afU, 0xbd04d3fdbdbf517dU, 0xbd43f3883d1958cfU, 0x3cf0ae19bd174005U,
  0xbdcc7546bcfa9a3aU, 0x3b942fff3dda669bU, 0x3c8a258e3df2c989U, 0x3c573dd43df8cf7fU,
  0x3cbad2f93c30d52fU, 0x3bcbe296bd570530U, 0x3e1568f2bdb7ee47U, 0x3c538290baa07f28U,
  0xbd1356fa3d205972U, 0xbc1294903d2e15efU, 0x3d8a89dc3d14e8b2U, 0xbd0e5c0d3e13fe17U,
  0x3da13dd63d437020U, 0x3c1215e83d73f97eU, 0xbcffa7d73dc0af56U, 0xba91fec9bc02e5c3U,
  0x3e04f9f03dc706e1U, 0xbd60db3fbd95f41aU, 0x3e034cb73d39283dU, 0xbe21873f3ce777a5U,
  0x3d32d5643d31a04fU, 0xbcddcd793dd3b579U, 0xbe297f943cca22a2U, 0xbe0c5de63d7342f0U,
  0x3d3e68a43c6b6f63U, 0xbd8805103dc2c030U, 0xbd11bc5ebe39cf3eU, 0x3d43d1b8bda7ce57U,
  0xbe0bbb433d83000eU, 0x3ca2ace13e23688fU, 0x3db2393c3dcbd15cU, 0x3de0e8fc3b5cb29bU,
  0x3cc415063c16c9f8U, 0x3d9a9782bdd80f26U, 0xbd8d89043d99eb3cU, 0xbdacc9dabdde4fb5U,
  0xbc299827bd5eae7eU, 0xbd9294dfbd62fb24U, 0x3d8990003dcc333eU, 0xbdbd2228bd606a16U,
  0x3c991e7cbd81ec6eU, 0x3d1caccf3dfb5de4U, 0xbe2a7e9cbd90aef6U, 0x3e0405433c597fb9U,
  0x3d1a14a93d9a022cU, 0xbdbc32e23d39021fU, 0x3d482eafbd59d1fdU, 0x3d73832dbddc2c74U,
  0xbd4d1e91bd539ce1U, 0xbd42f80fbd231ed3U, 0x3c90e64f3e1b4ed5U, 0x3d2b27b73e13911eU,
  0x3cd60738bc7108efU, 0xbdbed370bd6609ffU, 0x3e02afe03c08f9adU, 0x3c67f85dbd1805d8U,
  0x3d8a9bbe3dfd7aa9U, 0xbc5bf202bde77994U, 0x3e15deb7bcd1e726U, 0x3e1686a53c98c011U,
  0x3d41c0903dd35288U, 0x3d36ded13cc823a9U, 0xbd884cdcbd466e4bU, 0xbdd6782b3dcac579U,
  0xbcfe27fc3cebd1d8U, 0x3d01b327be0691b7U, 0x3cac7b143da76df6U, 0xbd956542be25fb19U,
  0xbd672522bcd8d67fU, 0x3adb9afb3cc7c7f7U, 0x3dcd9968be296902U, 0x3d624cb8bcb2f253U,
  0xbcce15653cebfce1U, 0xbde1bef1bd2ac105U, 0x3d2b7677be07bb1cU, 0x3d66acf9bcf0b174U,
  0xbe051c793c020c77U, 0xbdb80c003b8b8f5aU, 0xb9c32146bdc5eddaU, 0xbdf70818be00046aU,
  0x3da90596bdf5bc35U, 0x3dfd8905bdcecd3aU, 0xbdb079efbcaa578cU, 0xbd87e9abbd57dc11U,
  0x3d0647fb3cca7401U, 0xbd225b23be30fd3eU, 0xbe46ae823c8e02c5U, 0x3def92bbbc48a6d0U,
  0x3d8e13113da1a6fdU, 0xbc981b41bdb20a81U, 0x3dde8166be35d8fdU, 0xbd66229ebdd5bc8aU,
  0xbd0106083dce94f8U, 0xbdbb4321bcef7e6dU, 0xbe06d4e43da6a095U, 0xbc965eecbe1dc39eU,
  0x3c67a91b3e2ab5b9U, 0xbdc8a8513e01bef3U, 0xbc15317bbbedd4eaU, 0xbe185c18bd598043U,
  0x3d1382033d8e6c53U, 0xbbca5a3d3d9b4e01U, 0x3b40f4163d4cb081U, 0x3de5f18dbd28afafU,
  0x3e02bd2dbd812c34U, 0x3e2edc9ebdda377fU, 0xbe066e96bdfc3bc8U, 0x3d906cfd3cebf4bbU,
  0xbe63a9de3c7016e4U, 0x3db8db8cbd8e9081U, 0x3d48a6c63da47b97U, 0x3da1f8fb3e530555U,
  0xbda21f9dbdc010efU, 0x3c1396f2bdef1dd6U, 0xbe180e1c3d4102ddU, 0x3c71cf54be2a476bU,
  0xbc907cb9bd6903cbU, 0x3dd36387bce8891cU, 0xbc4396d7be380d74U, 0x3d8f83f4bd0c172dU,
  0xb8bc72b7be021289U, 0xbddf40fd3d7eadc2U, 0x3db0a7c5bddb5f7fU, 0x3d89a1733b97d86eU,
  0xbe028482bd2c1798U, 0xbe0b0165bd5a1b5fU, 0xbcd7a75dbc8bb08bU, 0xbd80651dbe093ec6U,
  0x3d6c881cbda01032U, 0x3dc4b4293d13ad7fU, 0xbd52bd223cde012dU, 0x3df53a01bdb9919eU,
  0x3d612217bddcb613U, 0x3d2f6ea1be4861dcU, 0xbe3f85b0bd95fa17U, 0x3e2dc0bc3c0e06d1U,
  0x3d863959bd758fefU, 0xbd815798bd8a2a4cU, 0x3dd1c059bbb25cfcU, 0xbcb7fac2bd088b9eU,
  0xbdf6801e3dbcf3edU, 0xbd1970e83d9f636eU, 0xbd60bc20bb8d92d4U, 0x3cc346b4be12258dU,
  0xbc8b0bd83e04cdcfU, 0xbcee1f4a3e228512U, 0xbdec7079bd147f31U, 0xbe1ebc7fbc9edb8bU,
  0xbdcb7412bc0b33eaU, 0xbc45fbab3dd703beU, 0x3d09fc883d6e6cc4U, 0x3e371bfbbd8b43a2U,
  0x3ce22f96bd938972U, 0x3d5bf53bbddb5910U, 0xbd2f9e86bd497cbeU, 0x3daebebd3d0c79daU,
  0xbd3111073cc9314dU, 0x3d013afc3d8da549U, 0xbd21aec9bde63db7U, 0x3d9a21383e2f81d0U,
  0x3d9e57a13c28e51dU, 0xbcb25613bc801687U, 0xbc54ec42bd0e087eU, 0xbdbdaff3be306ff2U,
  0xbd15c27e3d5fecb7U, 0x3de663edbdf2d11aU, 0x3dd04de1be1657c9U, 0x3d34bdd9bd228872U,
  0x3befdb8ebc22f250U, 0xbb4518c5bcebb0e0U, 0xbb390400bd634bc8U, 0xbd9940993cc37603U,
  0xbcd3cafa3d8c1a7dU, 0x3d19f53c3b6d2daaU, 0xbdebf291bd9468fbU, 0xbdd3fa203d7086b7U,
  0x3b78b9b23d4cc178U, 0x3d7698c43d7c6a4dU, 0xbd632ae93d9a9038U, 0xbca667c33bd18b20U,
  0x3d9f67d83e2c5c49U, 0x3dc68899bd0c24d3U, 0xbbe6d461bc7fca77U, 0x3de09e7cbd624c25U,
  0xbb62ad9f3d9777f0U, 0xbd2fe5bd3c135e6dU, 0x3d19ba84bb516976U, 0xbd137ca5bd5ad79eU,
  0x3c3dc88f3d332c42U, 0x3b4039f23cde839bU, 0xbe48eac5bd75f58bU, 0x3d2148633d9adfd1U,
  0x3dbfdff13e26b2a7U, 0x3de9992a3d8a6155U, 0xbdf8ca03bde75b94U, 0x3d8e76e0bc2ef223U,
  0x3dab78953e205fb3U, 0x3da1101e3c82c2d7U, 0x3c449eae3d3b3086U, 0x3d93aa013cb112b7U,
  0x3d17ec40bcf44684U, 0x3d885d9f3d459223U, 0x3d870f803d5fd046U, 0x3cbc76f13d3e1398U,
  0xbe2b2f453db2a5ebU, 0xbdcdaacb3da9bd76U, 0xbe015a20bd604097U, 0x3ddb860e3dc9ae20U,
  0xbc4f3ae63db6e922U, 0xbd75cf5c3c419e7cU, 0xbe409145bd825a06U, 0xbcd8ef1abd7a3817U,
  0x3d62061abc923b1fU, 0x3d5b72163d81f85cU, 0xbde5d8ecbe0435f5U, 0x3da1654ebddb3594U,
  0x3dea3d023d658b4aU, 0xbd344a40bba50397U, 0x3d4b1b7dbda65b63U, 0x3d40093b3cf34612U,
  0xbc5e1d41bd8217abU, 0x3c596c9cbd235380U, 0xbd9dcd3c3da519ddU, 0xbe17881fbd00514cU,
  0x3cf751e93accb114U, 0x3d943b4f3baa331eU, 0xbc8265fc3cfd39e6U, 0xbdb911d43d90c9edU,
  0xbd73e958bdcfa28fU, 0x3dbfb8c83c185b26U, 0xbda47f8abd8f7046U, 0xbd066222bdf5942dU,
  0x3d4b3eea3b8a8f8fU, 0xbd9a17f63d74577cU, 0xbd35d1dc3be9a11aU, 0xbdfb430e3c6cb20cU,
  0x3c8ac7f7bd2843d6U, 0xbd0b0e20bd95eca3U, 0xbe36c1bc3c86e6fbU, 0xbd1787b83d2697daU,
  0x3a111d8f3da96214U, 0xbb2de60a3cdcc0cfU, 0xbd8f191fbdbd68d6U, 0xbc1778303de8bff7U,
  0x3ce9114ebc3f4383U, 0x3ddd3c46bd5d09d2U, 0xbc29115bbe403ecdU, 0x3db87ac13dbaf635U,
  0xbda17447bdcad407U, 0x3db22c1f3d0ad12fU, 0xbe11b3b4be1d06baU, 0x3dc3518fbd603447U,
  0xbd1cb19ebb8907c9U, 0xbcccee42bdf2fbafU, 0x3bb0dcfe3e1bb84dU, 0xbe0628d03e24bbc6U,
  0x3ce28a823bbd3978U, 0xbd7e957dbc470db0U, 0xbe188e2fbd0a24cdU, 0xbe36c22d3da7047bU,
  0x3d9303023d83a697U, 0x3d75c1ce3d87547dU, 0xbde3db52bd8b59c8U, 0x3df32595bcb328b0U,
  0xbce35051bdc07fd8U, 0xbcede477bd0b2ec5U, 0x3d248440bcd38141U, 0xbd3a90ef3d2d5c15U,
  0x3ca0860d3da679a0U, 0xbdc95aa8be2ace7cU, 0xbd54b32e3d43e4acU, 0x3b8821bdbcac541fU,
  0xbc9805b13ccd1053U, 0xbbdc1db93cfc5f84U, 0xbd5bc67cbcbec891U, 0xbd946894bbd77c63U,
  0x3d556db13d1c870aU, 0x3d7f403abc97c110U, 0xbb9eddbebe0e6f39U, 0x3d3639333d5dd215U,
  0xbb1fb1e53cfcc957U, 0x3bac3c19bd2aa138U, 0xbddc40ab3c6488bfU, 0xbe10e542bcf93e18U,
  0x3d3c4b7f3d4ea63aU, 0xbd03eb563d2a324cU, 0xbe65e6fc3df0d7cbU, 0xbd6b7cd13d884810U,
  0xbd9124f33e05b12aU, 0xbd5eb6e63de772baU, 0xbe20ee2bbb15df9dU, 0xbe1b007a3d805501U,
  0x3d827304bd59d7b2U, 0x3dd350b3bcd6b77cU, 0x3d525ab1bdc10156U, 0xbdd7f7bc3cf7153fU,
  0xbd054cb6bdd310f5U, 0x3da09ea53dbc634aU, 0xbe021357bd7b0d22U, 0x3da63061bd909536U,
  0xbe1975613ded9dcaU, 0x3d835d6dbdbdb565U, 0xbbaf8db63dfee23cU, 0xbd28e86e3e34da2fU,
  0x3ddad4283dc24ac4U, 0x3cfe985f3d485baaU, 0xbcf09ceb3d12d5c4U, 0xbdd7d3f4bd83698fU,
  0x3d4942463c9f5641U, 0x3dc2d17f3dbf55c5U, 0x3d103c3ebe0bb601U, 0x3dd8ceb63cabfd60U,
  0x3c24d0e83d2a3df7U, 0x3d66ccd23d5c566dU, 0xbd82b0bcbdc8e17eU, 0xbda7632e3d08c91dU,
  0xbd817d5cbd279196U, 0xbd88c6fd3b221ec8U, 0xbe1741c7bdab94bcU, 0xbe172e043d7c91d3U,
  0xbdcee086bc157de8U, 0x3cba48c3bd98f15cU, 0xbdd9fd523e022b1eU, 0xbce803a4bcfc22b5U,
  0x3ba8d5613da675d8U, 0x3dcd44f5be371a2dU, 0xbe2250acbde171efU, 0x3da9b7eebcc6d28bU,
  0x3daf3a73bd36ab89U, 0xbdcbc092bd250717U, 0xbac4c8383d73c759U, 0x3d326e8dbd2bcf2fU,
  0xbbd65d563da6fab5U, 0xbe20800a3d7be7baU, 0xbe26f2e93db822b6U, 0xbe1919e6bb76bfcdU,
  0x3de0e2e43e0478f8U, 0x3d3f72cb3e0d6e6bU, 0xbdf5d11fbd92ac4dU, 0xbd263c1dbcaf5e0eU,
  0xbd77b57bbd191664U, 0x3d2461e83db44901U, 0xbd0e6c2abdd5095cU, 0xbda63f14bbd5b70aU,
  0xbd7f25f1bd14d88eU, 0x3dba1f8e3dbace56U, 0xbdc216573d323c20U, 0x3ce29f75bd80945fU,
  0xbd75f6933bb4b780U, 0x3d94f79dbe2ad0ffU, 0xbe12feedbd7375e9U, 0xbe0012aa3dfe3614U,
  0xbd6776f33d9cd8baU, 0x3da4ebd8bdc2b680U, 0x3e257c28bbadd4dbU, 0x3d722380bcc73e16U,
  0x3daad47ebd8d5a11U, 0xbca7ff813cdfc396U, 0xbe07670e3d17760dU, 0xbe756bdcbda67606U,
  0x3c2106cd3c5ec2c8U, 0xbdb9d89bbd9b13c8U, 0xbd0e0272bdd14272U, 0x3d944fd83bf071e7U,
  0x3da3adddbdcacceeU, 0xbd9aa9223b94da05U, 0x3dc6bbc33e04d418U, 0xbd9a9b733d70c8cdU,
  0x3d845be5bde72381U, 0x3d91015dbe04d328U, 0x3e37192f3d1dec10U, 0xbdc386f93d31677dU,
  0x3c96b364bc213ed0U, 0x3e0820143d271f54U, 0x3c1f61d33cb643f9U, 0xbd869670bc5c0856U,
  0xbd6ce7853e20d2c8U, 0xbd96072bbd5ff63fU, 0xbdcdfee5bd9903adU, 0x3d45e147bd3196eeU,
  0x3d90329bbd60d7d7U, 0x3d4338c23dd92f28U, 0x3e5c257d3c8fe3b2U, 0xbcd683983dd1545bU,
  0xbd6087d43cbeed8bU, 0x3d7da2f2bc977617U, 0xbcec31f8bdd08701U, 0xbe0a4582be055d62U,
  0x3cc6c314bd0f9fb6U, 0x3deaa1dc3c0ffd4bU, 0xbbd470ff3dbf2416U, 0xbdf39be73d56f24eU,
  0xbd54b2eabdbeedebU, 0x3c7b80373d85ffeeU, 0xbdecc9fdbd8f17c0U, 0xbae28555bd85d101U,
  0x3a6493743d815fd1U, 0xbd0b0c3e3d2ce2c9U, 0x3d65a8c83d758136U, 0xbd08cedabdd55e4cU,
  0x3ddf1888bcb6aefbU, 0xbd2e16c13d839f0dU, 0xbcee1beb3d9403f8U, 0x3d99e7703d9649bcU,
  0x3bcd71013d7eb6fdU, 0x3dc49bc53bdc8dcdU, 0xbdbe954b3db9cbc9U, 0xbdbbf70abddcced9U,
  0x3e02962abd759c57U, 0xbc5f087dbd5e5346U, 0xbdbc1b0abda7935aU, 0xbac439cabda41a24U,
  0x3ce491003d2e6a31U, 0xbd21fcbebe021540U, 0x3e01ae88bd32d84cU, 0x3e35b9a9bcaf9b34U,
  0x3da4c08c3d2187adU, 0xbdea8275be08c972U, 0xbd9baa76bdb7985bU, 0xbe4d41c43dc971bdU,
  0x3d8af3aa3db4bf91U, 0x3e4497463dabf01fU, 0xbe41a6773dd7b7f4U, 0xbe56b2253d8c8f6cU,
  0x3e06b27e3df80741U, 0xbe1cef123de5e072U, 0xbcbb15e83ddc491bU, 0xbda190afbdf4f6ecU,
  0x3cee12f6bd92feb4U, 0xbd22a66a3dcbf924U, 0x3e205fe03e2c66b8U, 0x3d1f731b3aef818fU,
  0xbce2aa053dcbf1beU, 0x3dd1a091be4f1263U, 0x3c7b4859bdd80154U, 0xbe5b68ae3d882acaU,
  0xbd96be6b3d9ccf94U, 0x3e47a71e3e04f1ecU, 0xbdcb23e53bd71ecfU, 0xbd025f5dbd863ed2U,
  0x3dd91b05bd47a1c9U, 0xbe112dcd3da1e236U, 0xbdcc153abe061cffU, 0xbdf1b3a3be0fcef1U,
  0x3cc0c3e63d9aada0U, 0xbba3454ebda287c9U, 0x3e195aef3d7c962eU, 0x3dbd62e5bc0f34cfU,
  0xbd678f173d09bdddU, 0xbda05779bdb51a04U, 0x3b709de4bdb0d11bU, 0x3dc2e4343df9ca7bU,
  0x3adda6b13c9f40edU, 0x3e15f4273dd3e0bdU, 0xbe08aaa73dc60c40U, 0xbda73e5a3d998ee8U,
  0x3dc93e01bd33d0c4U, 0xbd13c8ec3d218a83U, 0x3e178fe73d15e589U, 0xbd826dafbdbfbb23U,
  0x3ca2ee7c3c05929bU, 0x3db48f243ca6d328U, 0x3e3a9245bd5f21afU, 0xbd8ab74b3d9d2499U,
  0xbd9a74513c8348f3U, 0xbc9d4e86bda429d5U, 0xbc16636fbcef8048U, 0xbe1f6f83bcfe3ba0U,
  0x3da391833d888a45U, 0x3e22f6b23dd8d407U, 0xbde46e083cce0305U, 0xbe0323973d6700a0U,
  0x3d94d79e3d6ca798U, 0xbdc721103d6a7642U, 0x3d3d951a3d7bb62cU, 0xbd948ed6be0c8f3bU,
  0xbc09655cbdaea246U, 0xbca19add3dc955cbU, 0x3e765c813df9f6b6U, 0x3dc1c96abd014dc4U,
  0xbe06fb463cea3baeU, 0xbd91af72bcb048b3U, 0x3da1b076bc2056a7U, 0xbd9bce7bbdaf973aU,
  0xbd5daf8abd9fe0d4U, 0x3e5b8f523d326238U, 0xbdbdc018bc24dfa2U, 0xbdac763cbb881a18U,
  0x3dc5f6473ca6dc8bU, 0xbe0818ba3e02ce85U, 0xbdcdf285bd2ef392U, 0xbd8616973d6aee87U,
  0xbc220146b98e844bU, 0x3d7c1cc3bd9a0223U, 0x3ddcfa96bccc0c11U, 0x3db618013de5e8d8U,
  0xbe031c10bdeb8570U, 0x3dfaf2b9be0c8658U, 0xbd6e43c63d7e6321U, 0x3cb220b3bdc1f7feU,
  0xbd131efcbdf88fa3U, 0xbc8e33f5be628d7aU, 0xbe4c55c4bca5e89aU, 0xbd309de5bd85f4c9U,
  0x3e0d98d43c68364eU, 0xbe5756f03c9b905fU, 0x3d9b4dd33d9595b0U, 0xbb4f1a833d28f5faU,
  0xbd339aa13dd9a93cU, 0xbd712c603d638d8bU, 0xbe0e49f6bcd584d4U, 0x3cd07df5be2765f9U,
  0x3c560a9d3d9e214cU, 0xbe1fb83fbdae1561U, 0xbe0bc797bcd74880U, 0xbd620da5bde80d28U,
  0x3daae8283cb6f384U, 0xbc8fd2453cfa2de2U, 0x3b5c6a71bdba1df0U, 0x3d3755343d535e92U,
  0xbbc98571bd85ec58U, 0x3ddfec90bddb480dU, 0xbbe707cebdac5563U, 0xbcbd2a5fbe14d93aU,
  0xbdbc99103cb2457fU, 0xbd0b31513cbc5010U, 0xbe0bad4e3d76604cU, 0xbe08c3143d9c8c7aU,
  0xbca9c2303d3be35eU, 0xbc76b0243d5a6772U, 0xbd4119af3d2b90ddU, 0xbdb3a65a3d6bfe3dU,
  0x3d7f825b3d1e5ffcU, 0x3dcb43d13dc186caU, 0x3d1522d33d5ac9c0U, 0x3d80f81ebcde7af6U,
  0xbd69e5d23df0d28bU, 0xbd4020acbd68ff4fU, 0xbdb1ffe3bd91d827U, 0xbd5c1962bdf7690aU,
  0xbd825d453d04482cU, 0xbd67e5dabc5b6232U, 0x3bc45d05ba3e5918U, 0x3bf5445b3d27743bU,
  0x3cd2013cbc2273b8U, 0x3de9f13dbd2bc372U, 0xbde48a643dc5a736U, 0x3d44f216bdaac49eU,
  0xbd95dfe2bb57d464U, 0xbd67a1cabd8b4a72U, 0xbe813d333daeac52U, 0x3d0a67803d03e98dU,
  0xbccf596e3d0831abU, 0xbe234fef3bafb131U, 0xbdbc9498bc1b6575U, 0xbd74ef8f3c6d1defU,
  0xbd9fc6b73da6aae1U, 0xbddcc05bbcee2517U, 0xbe3e8db93d7b4b6bU, 0xbc5f06c6bd500f1dU,
  0x3d63b53ebd4f564fU, 0xbde4367f3d81b063U, 0xbdc3a396bd97e093U, 0xbca988643cb9558bU,
  0x3dcc4029bcc07582U, 0x3c2b573a3dc28d1aU, 0xbdfe1074bd392fdbU, 0x3c53f063bc57d595U,
  0xbdb480a0be4112efU, 0x3d7a5b923c1c3a18U, 0xbdee1060be1d3a45U, 0x3d46efaabdbd2af2U,
  0xbcbfc593be0bf19bU, 0xbdb834ddbd0ac006U, 0xbcaf61503d291e03U, 0xbbc7f1d23de88546U,
  0xbd38614b3d9bf4a8U, 0x3ca5bf5a3da7c467U, 0xbd9678f3bdc9eb29U, 0x3c361f973d868d08U,
  0x3d3384b2bdd2fcf9U, 0xbc4028693de62065U, 0xbd926d17be30ff91U, 0x3d178f30bb31d28aU,
  0xbc41e008bd917a93U, 0xbd5845113d3b7728U, 0xbcdaf13dbd561c31U, 0xbd416389bdc1420bU,
  0xbe32d12fbdc38129U, 0xbcad51ac3d5061e1U, 0xbc8adf90bd94a4edU, 0x3d6116373e33b992U,
  0xbd19ac35bdf56d10U, 0x3e0d88a7be388b27U, 0xbd3ac5ea3cadb564U, 0x3c9d2544be0d51dcU,
  0x3db85633bd9b4ffeU, 0xbd6ce394bde8dbefU, 0xbd3d6fe13cf60cd2U, 0xbbb30d803c463502U,
  0x3d977a043d96c54cU, 0xbdcab1333cd34586U, 0x3d81d1753d98f9adU, 0x3d79359dbd8d27ecU,
  0xbd06267b3e103294U, 0xbcc2071bbd8d0957U, 0xbe80f6323c07eab9U, 0x3c5f72e4bdf996c4U,
  0x3cc2e1583e15c5a3U, 0xbd2b95abbda59c46U, 0xbd17d1f7bde843caU, 0xbe1a3d87bdc29aa6U,
  0x3d65147c3d3ab510U, 0xbd007a5e3db2537dU, 0x3d0bb1c5bdf5d84bU, 0xbbc06e0abdb47a2dU,
  0xbe2c27fabd1015a0U, 0x3e04dea4be02a92bU, 0xbdf7f8d9be0ec520U, 0x3d6acd24be352bfaU,
  0xbe2cbebfbd10c998U, 0xbdd48a99bd0a4bccU, 0xbdec35603d9b8debU, 0xbd853d3a3dcc401eU,
  0x3d3077af3cb7266aU, 0x3d0db1bf3de509a4U, 0xbb8e491fbe0497e6U, 0xbd1a8671bc4e956aU,
  0x3dbd6241bda74b75U, 0x3da63f4b3dff0f0fU, 0x3d842eee3c13bfe5U, 0x3d98b3ccbddc821eU,
  0x3d101ef13ca276eaU, 0x3d1253fabd08a839U, 0x3d7ec0e93b53faa4U, 0xbdb0e8e53d1b25a2U,
  0xbe1124ffbde83895U, 0x3daf549bbd3a7134U, 0xbda2531c3d63bc2cU, 0xbe0747713e334670U,
  0xbe126f7a3daa7e32U, 0xbda8eedcbe0ebc3fU, 0xbd1ad15f3d6db1daU, 0xbdc1f3e6bccee1d3U,
  0x3bfed5cd3d93a450U, 0x3cee6ad7bd2f9103U, 0x3c278859bdb6eb4aU, 0xbd75bbb0bda40d10U,
  0x3d190d103d8c6f2cU, 0x3cd5a1d63d5c1238U, 0x3d745b6a3d8b9d2aU, 0xbcbeeba33d065c80U,
  0xbddc01693d0585f4U, 0x3d60407d3d049088U, 0xbc36952bbc2bff57U, 0x3de33e103e0cd767U,
  0xbd179bf13d827f2bU, 0x3dc29a6cbd1267e2U, 0xbcddd35bbc8cf669U, 0xbe03469abd8e1681U,
  0xbda56b74bde8fba1U, 0xbca75a093dc18bddU, 0xbce319edbd951e08U, 0x3db031e43da1ddafU,
  0x3debd290bdd61105U, 0xbd5b9a01bdc199e0U, 0x3d93d137bd937a60U, 0x3ca35df7be0045f2U,
  0xbe0bbbeabc739eccU, 0xbd928cd93d7ab916U, 0xbda3b3ab3d8e65fcU, 0xbd1fcf093e0c90e0U,
  0xbcc43e733b0cc5baU, 0xbd1729333da4a0c8U, 0xbde19498be0ae1ceU, 0xbcd538b63dd47fc8U,
  0xbc68a3a0bc01e869U, 0xbda7db793d22822aU, 0xbd0ef9bdbdeb6c2cU, 0xbd511f7c3bfae66bU,
  0xbb670b40bdf79c76U, 0x3d2ed8d0bd8c8747U, 0x3cb80493bdeb78beU, 0xbddc0ca1bdefb05fU,
  0xbe295260bdd3c8d7U, 0x3d96e806bda86e6dU, 0xbe467733bd8660e8U, 0xbdf726bcbc3c8b9fU,
  0xbc77543e3cd6c023U, 0xbd4de40fbdf05de3U, 0xbe0210153d50db7fU, 0x3d95a1e0bdb9f3c9U,
  0xbd3af1de3d54b7a8U, 0x3da37364bba6ae70U, 0xbce7ab6d3ba90fe8U, 0x3deec7fcbd324313U,
  0x3dc783c0bca8ca5cU, 0xbbbe64d3bd6cc6daU, 0x3da6d1223c5a809bU, 0x3cf251ee3de9c5feU,
  0x3c2b38f53d9501e4U, 0x3cc0376a3c96b1f9U, 0xbda103f43e1df188U, 0xbdc3367d3e124764U,
  0xbe04d5d03d7b1f81U, 0x3c87318bbdbc3d7eU, 0x3d77f0203ddfde9dU, 0x3cd9f258be024828U,
  0x3c9990abbc8c9116U, 0xbdda067cbe01baccU, 0xbe126438bda34326U, 0x3debac2e3ca84ca7U,
  0xbd46db60bd0b13dfU, 0xbdbb37a7bdf72bbcU, 0xbd878f3cbcaaa9f2U, 0x3d8393ec3b99eed5U,
  0xbd8cd9ed3c2b654cU, 0xbd465a28bce36647U, 0xbe51c1e63d0f7824U, 0xbdedf2f43dd0c485U,
  0xbda566b73c3cbddaU, 0xbd548d39bcbf4777U, 0xbd848464bdaa698cU, 0xbe02ddf53dbb8d11U,
  0x3cfb5ed4bbddada6U, 0x3cfb31743e06ef0eU, 0x3c775a17bdf53911U, 0x3d3ff105bd2cc32aU,
  0xbd3b130e3c8c34f7U, 0x3da0ae573d0775b8U, 0xbb9085c1be30a650U, 0x3d3d0bbfbd32af57U,
  0xbe3434a9be0b6815U, 0xbca1a61439f687b6U, 0xbd15b5c73dbea5a7U, 0xbdf3912b3deed11bU,
  0xbc77e26d3d79e001U, 0x3d46d6fb3daa368aU, 0xbd503f1b3d21dd98U, 0xbc44fa7abdbe656bU,
  0x3d0449aebd126e08U, 0xbd61e8473c8f6c08U, 0xbd40e5afbe1836e5U, 0xbd4289293d2097ccU,
  0x3d801867bd9d3f2eU, 0x3dc601d7bd891d7eU, 0xbd614cb3bb0fdc96U, 0x3db2702ebd640262U,
  0x3d1016d2bd92172cU, 0xbbfa16253da7ebd9U, 0xbe2c21e33e0d69ecU, 0xbde85cc53df6c2bcU,
  0x3c0df70abd4a4498U, 0x3e17c8cc3c14b79aU, 0xbc828a5dbd55de36U, 0xbc70f545bd40f731U,
  0x3d9a22e63a244418U, 0x3da89f7abc7975f4U, 0xbd147321bdcc7f6bU, 0x3d44c0483e140301U,
  0x3bd383333d826b01U, 0xbcf934c73c9e2772U, 0x3cd88dccbd204d97U, 0xbdb21e1b3dd37c96U,
  0x3c9e1c6f3db4d09fU, 0x3d60f48f3d736c30U, 0xbe5827f2bd03072fU, 0xbd88a91c3e14dd20U,
  0x3d70edd13d705f53U, 0x3d9be7cc3d8fd1aaU, 0xbe02397ebd404093U, 0xbdbbfa293e141b82U,
  0x3db63015bdee05f3U, 0x3c92b4653e1c9726U, 0x3c933fe7be459524U, 0xbdca8851bdb16ea1U,
  0x3bc7b221bcf43374U, 0x3e1ab39b3d804843U, 0xbe2dec5b3bac3563U, 0x3d0e6e8d3cf75db5U,
  0xbe29724abe1bb5dbU, 0x3e028564bde594dfU, 0xbdc169363b544168U, 0xbd5e37ff3e532c04U,
  0xbd8041033c367f03U, 0xbcf9f998bd9ecf62U, 0xbdb821f9bcff52f2U, 0xbb37c480bd014bf4U,
  0x3d50bbc73d85fb88U, 0x3c950366bda2bc37U, 0xbca53a91bc0232d3U, 0x3d89d7f3bdc3fd1bU,
  0xbcf01d16bb160097U, 0xbd544ac4bdcebb4aU, 0x3cc03d4bbdecb4a2U, 0xbddc58713db1e880U,
  0xbc8229613d4dc69bU, 0x3d80e5b5bd39337cU, 0x3d98afdcbc1affd2U, 0xbc1f07533d825022U,
  0xbdb254d23dbb04fcU, 0x3de243c73d66af6aU, 0xbd302730bdeed653U, 0x3db7a1e4bde093feU,
  0xbdaa1d54bd3fd97eU, 0xbd7a203dbdc009eeU, 0x3de6ffd93d8f7494U, 0x3e36d0ab3d108edeU,
  0x3d5755aebdc395b2U, 0xbcdae3a8bdc2be76U, 0xbca1f5033c971413U, 0x3cf01634bcc3fad0U,
  0x3debbdc23d869ff4U, 0x3d4c1f12bd60aa7cU, 0x3d260c0a3b5874ddU, 0x3c787cb7bc910c58U,
  0xbdad0f11bddba637U, 0xbcacc5e93c9460fcU, 0xbdb773a6bdee2905U, 0xbafb71bcbd8ed177U,
  0xbcd989563dbdb859U, 0xbc353c3abd6d4acaU, 0x3d43da2dbc920478U, 0xbd2328bebd393592U,
  0xbd906d71bd2f62d1U, 0x3d89e251bd6087b7U, 0xbd4855113d5a5117U, 0xbcb7badebd4a8557U,
  0xbd8750c83d91e8c3U, 0x3db3745cbc7fff0aU, 0x3e002586bd37ba06U, 0xbd9ef43dbdb0e712U,
  0x3deb2e8e3d56601dU, 0x3c40cf993d108db1U, 0x3db29750bd0011daU, 0xbd34af583cf67d9eU,
  0x3cbd568dbcdc8fdeU, 0x3bffb9d9bafc47e7U, 0x3d385d4a3d22b4d1U, 0x3d93c162bdc8968cU,
  0xbdea86ebbbc255d9U, 0xbda176febd023ef0U, 0x3e0789bebd6906c4U, 0x3c989522bd898b1eU,
  0x3beec02abd645eabU, 0xbc01127e3bb33356U, 0x3d02b29d3cb51d22U, 0xbd6ff088bdbbd792U,
  0x3d07f932bc8c8ab2U, 0xbd0bd0693d33704aU, 0x3d9a7d7e3d73ea6fU, 0xbdc9ee4abdb9bac8U,
  0x3d3026d23e083187U, 0x3d87f596bc8609eaU, 0xbce526293d9cd53eU, 0x3e2c20d5bd8450bdU,
  0x3d8e85fc3d06df25U, 0xbc7918de3bdbdae0U, 0xbce0ec2e3d6bda8bU, 0xbcadffbdbb8948faU,
  0x3d968a703e035fc3U, 0x3bd667dd3c8b38c8U, 0x3c0823d13d9854f8U, 0x3cc95696be03e396U,
  0x3d82410a3cad87eeU, 0xbd46c30b3d8744eeU, 0xbcad3f96bda5e21eU, 0x3d49c7f4bd9908f3U,
  0xbdcbc457bd1fba73U, 0x3c4e047f3d280672U, 0xbdc326ab3b4a9637U, 0xbc66554bbd2a7c63U,
  0x3dc0d61dbd8b99ddU, 0x3d27d4ec3d84047bU, 0x3c3eae52bcb40d58U, 0x3b44423a3cb11f69U,
  0x3ca1249cbd0d7fd6U, 0xbce96459bc62518fU, 0x3ce20d9dbdc0a9f5U, 0x3c619ccb3d9f1ac7U,
  0x3c8b68f73c42dc8dU, 0x3da2d0dbbe27e2e6U, 0x3be59f033cf7802dU, 0xbd03f1893d5fc58eU,
  0x3c3ee41abd6fadd0U, 0x3dd2f1c33d344c3dU, 0x3d7165373e059a5fU, 0x3cb861ffbd79d873U,
  0xbc7db5493cb9d18fU, 0x3b992f78bd5c529dU, 0x3d3c8b893d2b2ae6U, 0x3d3101debdab5656U,
  0xbc9d65e1bd423560U, 0xbddb3a4e3dbb2143U, 0xbd7981433d1e3a0bU, 0x3bb03db6bde7ac75U,
  0x3d9f259b3e18535cU, 0x3de910b13e03227bU, 0xbda2abbcbb9aef2cU, 0x3b6a0e2bbd129a2cU,
  0x3dbff6d43dcc4f7dU, 0x3e150b0dbcdcdd41U, 0xbce775c13dc3e6caU, 0x3df4ada0bdc61b18U,
  0x3cf82108bcd2ff77U, 0xbd73821a3da9778fU, 0xbd327a6ebd65161bU, 0xbdc6fc423d7672e9U,
  0x3d30f5703dd6785dU, 0xbd1cfc69bd6fd4f5U, 0x3d34f76e3d28b2d3U, 0x3da99c44be081cd6U,
  0x3c83f3ab3d0212b3U, 0x3c1ec81dbd6c736bU, 0x3d878786bd364eeaU, 0xbabe6db9bdb2cf1fU,
  0xbca768c1bdbd3753U, 0x3d2953bbbd828433U, 0x3cafdb32bcc953d0U, 0x3de6aa0e3cc99745U,
  0xbd19210abda66eb3U, 0xbd4f3f593bb407aeU, 0xbcc9b4a8bdce0225U, 0x3c63a389bd95598bU,
  0x3d2b000b3d804079U, 0xbdca08193d78ce1dU, 0xbcc5bcecbc56c74cU, 0xbd4c3019bde32afaU,
  0x3e087792bdb3930bU, 0x3cf29676bd5ee273U, 0x3b9d1fa5bd9087e6U, 0xbd1e14ff3d20efb1U,
  0x3d285f93bbde2eddU, 0x3df0b5b33d0b11f5U, 0xbda6c2b8bd2f2d38U, 0xbe160a88bdfcd3e7U,
  0x3d8c96ee3d80c45bU, 0x3dc0db00bdcb3d03U, 0x3c00a754bdc5bae3U, 0xbd5fedd03e06bc3aU,
  0x3d041b203e2cdef8U, 0xbd8daeaabb071766U, 0xbd95faa4bd01453eU, 0xbd74b59ebbd2bb79U,
  0x3e1765d9bdc05ca3U, 0x3e027ddabda870b3U, 0xbded6169bd668d7fU, 0x3d8917c0bdd9c06bU,
  0xbd1ca32ebd627dadU, 0x3cb987e9be2d19e3U, 0xbd5efe053d810a42U, 0xbda2636dbdcdb641U,
  0x3d9682fdbe1d42baU, 0xbe1e917abdb8155fU, 0xbdaffea33d178879U, 0xbb8c231bbdfd46a2U,
  0xbdddcb633db472fbU, 0xbd6a1ea8bc5787c3U, 0xbd8546413c98d346U, 0x3d3ede3ebe2b7d92U,
  0x3e1acde03daf1739U, 0xbd194a423dbdac6aU, 0x3cba9bd3bdca2be9U, 0xbe20c496bdda5ee4U,
  0x3d84b092bc3027a8U, 0xbde505f83da9f5acU, 0xbdca11593c4ca2bdU, 0xbde03af4bdeab72bU,
  0xbd146002bdce28e7U, 0xbd41e4ecbe2f887cU, 0x3d56e8a6be139558U, 0x3dec2882be6c1a28U,
  0xbc860d533e18217fU, 0xbe22707abdb42225U, 0xbcb8475d3d7782a1U, 0xbdbc0bfc3df563b5U,
  0x3de81220be2b1566U, 0x3dbe5598bd7cd9dbU, 0x3d830944bd966d40U, 0x3e07edb2bdeb2d6bU,
  0x3d87538bbd8d51faU, 0xbd1546d2be236caeU, 0xbdad99e4be04d0f4U, 0xbd2ae18fbdc0ec40U,
  0x3d8e81e93d91b91dU, 0xbd3cbeb9bc3f1546U, 0xbccef81f3b77d655U, 0x3d6fe446bb590bf2U,
  0xbdd49bab3e3954fbU, 0x3d09fe3c3d988bbbU, 0x3d52af85bcd7c65dU, 0x3d45ab2fbd88d529U,
  0x3c66055dbe5e81afU, 0x3dbc6231bcb3d34dU, 0x3ccc29ff3c937967U, 0x3afedd75be4060e5U,
  0x3d0f3465bd8bd38bU, 0xbdbb89e2be9d50f3U, 0xbe480954bd08becbU, 0xbd4679cdbd1cb9a5U,
  0xbd508fa4be4badf8U, 0xbe139521be4824cfU, 0x3cf0cb593d517c1bU, 0xbdb38d17bc682d53U,
  0xbe174684bd3628b1U, 0xbdae294cbd766bc3U, 0xbe0d2d76bd013885U, 0xbd950718be37b741U,
  0x3d02d620bdb43681U, 0xbea080e6bd879ebeU, 0x3d2a455abea30640U, 0xbe1f342bbe6054baU,
  0x3d718550be28173eU, 0xbd48f13bbda46392U, 0xbd8b1183bcbe5b0eU, 0xbda8bb02be3003eaU,
  0xbe475017be5da00eU, 0xbd56210cbe9b7529U, 0x3cb4cb17be5815d9U, 0x3cc41092bd8ea530U,
  0xbe0e2383be2b3d91U, 0xbe00b6dfbd88f7b9U, 0xbe11b8cabd6254a8U, 0xbd7b9b08bdecea8cU,
  0x3de935dcbd19e6b1U, 0x3dd711ba3cc0c0c5U, 0x3dbc9b623dc142e9U, 0x3d8e4291bd9b1e73U,
  0xbd70b5ef3d5b6fffU, 0x3d5af2b0bdc44864U, 0xbbf13832bb958253U, 0xbd20e364bd364f17U,
  0x3c3633cabdae0d9fU, 0xbc8be265bd9c6f58U, 0xbdb135cb3da55291U, 0x3db9deba3cd1df45U,
  0xbd41b3f83e39be03U, 0xbd3ef834bc40ff51U, 0x3d1469c03d78a856U, 0x3c27a0903d2774b6U,
  0xbdd01b82bcf54467U, 0x3df2cc0fbe205d49U, 0xbdef3926bc925632U, 0xbd0a88f6bc48884cU,
  0xbc44d437bd25569aU, 0x3c546baabe7266d2U, 0xbdce92b2bb0b38efU, 0xbd94d86bbdbba0cdU,
  0x3de2d000bdfd2224U, 0xbe0506dfbe3f050bU, 0x3dddede83c4efd43U, 0xbd65722d3d8910bdU,
  0xbcf0388e3dce6da2U, 0xbdac5c8f3b17e0a4U, 0xbe1de2433d666575U, 0xbdea913bbe193119U,
  0xbdbee0ac3d4af16cU, 0xbe14a3e03d9a5f8cU, 0xbde9df47bdaca5f1U, 0x3d47fbc23d1437bbU,
  0x3dc17b973e02d4bcU, 0xbdb162df3d3ea625U, 0xbcf9f901be104421U, 0xbdc1fb74bdf8a2a7U,
  0xbdb5bfd0be3e8636U, 0x3d8e044bbe6282ebU, 0x3d8e29debe953c6fU, 0x3d4204d13ca1e45bU,
  0xbe29ce93be0e48fbU, 0xbdacc7323e0f75a3U, 0xbe1a2ebf3ce4a15fU, 0xbb3a13053d7bb11aU,
  0xbb29afbebdd9b942U, 0x3deeefdcbe0c3db6U, 0xbc5e69d23db20c70U, 0xbc7f5384bb288b78U,
  0x3d321b34bd7cf11fU, 0x3b1eaf91be2f9829U, 0xbd48b39a3d07360aU, 0xbd1d1820bda341b4U,
  0x3e299a6ebdd4ca97U, 0xbbc13348bd32c698U, 0x3da19e93bdc511a2U, 0x3da68b6f3bb085f6U,
  0xbd8a5e353c81b039U, 0x3ca76dc0bdcb7302U, 0x3d22a389bcf1c530U, 0x3cb275a3bdd5506bU,
  0x3dc1547a3d143c56U, 0xbdd320283dc9f09cU, 0xbd72ed35bdf98cdaU, 0xbd851ed0bc56eb08U,
  0x3d73f57b3d797499U, 0xbe2bfbd5be01ceedU, 0xbc80e40e3da1bcf6U, 0xbdbedc30be1ba936U,
  0x3cc70cbcbe2d987eU, 0xbcf05874be0efeb5U, 0xbd32aeebbe0b3dfcU, 0xbcd729ccbe24d1abU,
  0xbd9adb3e3e157825U, 0x3d00a373bd108e5eU, 0xbc85ec573cb3fb37U, 0xbe0ed692be0b21c8U,
  0x3dc88e063db108f5U, 0xbcd83623bca1c175U, 0xbd29960cbde1566cU, 0xbd9478213c516234U,
  0xbd0e6f46bd4b0359U, 0xbcfd7b163c121db1U, 0x3d2318d5bd4ce732U, 0x3d90158cbd9b94f3U,
  0xbdec78eebe1754e0U, 0x3df646e73d9c600bU, 0xbbe48c74bc1b975eU, 0xbd257ef7be24b9b7U,
  0xbdf4f7b03d44f97aU, 0x3dbb1740bdabc2caU, 0x3ccb5c373d647a1aU, 0x3da2dd843ce1f775U,
  0x3d7575ddbdeb74fdU, 0x3e0c681bbde3eb81U, 0x3bd16ad63c6f9b1dU, 0x3dc3ee24bde1b872U,
  0x3dcd8f223d949415U, 0xbd869a70be52d805U, 0xbdb86543bdd9c0c4U, 0x3d6a2cb93c92a4eaU,
  0x3e0d365cbdedc4a7U, 0x3b2a31e6bd4e99dbU, 0xbd200059bd465237U, 0x3dcba46a3dd3985cU,
  0x3cf6546e3de4372eU, 0xbd47de22bc5574f4U, 0xbdb197de3da8919fU, 0xbd203fcabe0d6175U,
  0xbd7f63bcbe3b2544U, 0xbbeb7a3fbe41566bU, 0xbcfccd71bc95d269U, 0xbdadca8dbe2ba0f4U,
  0x3ca7d650bdad6d28U, 0xbe37e921be1fbfe0U, 0xbe18ac943bd67a2dU, 0xbdc4021bbd53a58fU,
  0x3d7bda48be028262U, 0x3c1bdecabe950e5fU, 0xbc23a47cbdabe5a3U, 0x3dc6dc9bbe26453dU,
  0xbdc3211a3d708ea9U, 0xbe4399503cad7f7cU, 0xbd5af706be21845bU, 0xbd9883b9be3336dbU,
  0x3dd396fd3e0d75d5U, 0xbe00371b3e153a87U, 0x3bef90dcbe24e795U, 0x3c0562423da3e813U,
  0x3cbfc3c6be1a14a2U, 0xbd2bc5ed3dfc4e09U, 0x3c32a011bdae143cU, 0x3c7aebe2bdf383a1U,
  0xbd478e6bbe5a7eaeU, 0x3d8c4695bc8f64ccU, 0xbdb1d1c6be028d81U, 0x3c722fb7be2353fbU,
  0xbd8e76f63c844e0fU, 0xbcbba9d53dd0e505U, 0xbd71825a3d9ed47bU, 0xbde8c7323cea6f91U,
  0xbd1add0fbdc6ac0aU, 0x3d39645fbd7839bdU, 0x3da3d5ffbdd5e6e1U, 0x3d03231bbdc3a741U,
  0xbcaf94413da318adU, 0xbceec6a5bd38c0daU, 0x3ce170603d0c9af7U, 0x3d2a49603b7af571U,
  0x3d2c7e72bcd184a7U, 0xbddf02033dada004U, 0xbd37dfa73d81f165U, 0xbc8ff7763e25d5e0U,
  0x3d4787713c90eb5bU, 0xbc345c5fbb9504a3U, 0x3c692015bcf16816U, 0x3c442798bd38f70bU,
  0xbdc2191dbd964cf7U, 0x3e1644e0be438627U, 0x3a88760a3d218935U, 0xbc0fab0cbd790530U,
  0xbd5d13513da0eb40U, 0xbdcc178ebe2d176bU, 0xbe4ab1d6bd4ff8bfU, 0x3d1663b03d1035b9U,
  0x3e1bd0e7be1860fcU, 0xbe2fa3a1bd673afcU, 0xbd81d590bba7f818U, 0xbd688b6fbd26b664U,
  0xbe0133933e0a1c9dU, 0xbd9ddf043de42dceU, 0xbe653765bd96f32aU, 0x3dcb1c3cbe3a719bU,
  0xbcd9555d3de78515U, 0xbea73f4e3dbff3baU, 0x3d96c4e3bd810ae4U, 0x3cbb7de63d8437faU,
  0x3d34ef303c18771eU, 0x3d6e44a9bd26e2d7U, 0xbd419952bd164580U, 0xbd8a1904bdabd583U,
  0xbdcfb376bd126aa2U, 0x3de0355cbdc769b5U, 0x3d4c06ffbe5e6373U, 0x3d8646e6bdb33046U,
  0xbdb737cdbdfdeb01U, 0xbdc18b46bdacdacdU, 0x3c10f84f3dcfefe4U, 0x3cbf69083e124ddcU,
  0xbe2ff925bdad2f1eU, 0xbe55056fbe22810cU, 0xbb0dec53be3f7bd8U, 0xbc73da843d01f865U,
  0x3da4bfffbe100217U, 0x3ce53b8cbc2cc146U, 0x3c51cf08be8b8440U, 0xbdc136fcbd041e7fU,
  0xbe4540c4be3c3106U, 0xbd98c6453cab01faU, 0x3d69fb11be5b641bU, 0xbb86ef863d187960U,
  0xbde22bdbbe89043cU, 0xbdfcb593bd7bfc75U, 0xbb7159c3bdba1a6dU, 0xbdd3fab4be2e0fa0U,
  0xbcb37a6bbd371f56U, 0x3d04892dbdcae02dU, 0x3d360f5ebd895d52U, 0x3dac83013d43e694U,
  0xba904d12bdf7f355U, 0x3c7f8ead39aa0ce6U, 0xbcea5747be5d5bcdU, 0x3d2285093cf50e50U,
  0x3ccd489ebd1fec60U, 0xbe0d94eb3d9205dbU, 0x3d4657c83e09a279U, 0x3db6e21a3e2277b7U,
  0x3e23d86d3dadc95cU, 0x3d9a6821bca5338aU, 0xbd93f47c3d0fef0eU, 0xbe6a1fc2bdf635f6U,
  0xbcd87390bd08c903U, 0x3dcbac373d6da8b8U, 0x3d63bc653d99b4b9U, 0x3d8e99d8bc300863U,
  0xb99af8edbd1fce3fU, 0xbcde1d433cb7a048U, 0xbe111883be0a6f96U, 0x3e21bd2f3dc860fcU,
  0x3e1038083df7f2ddU, 0xbd7f43e9be0f1afdU, 0x3cca3c3cbd41d775U, 0x3df4b1653c8e962dU,
  0x3ba33b163d9f0963U, 0xbdb718e8bdd09d9dU, 0xbdf1bcfb3d0d9272U, 0xbdd9fd42bc9b2a52U,
  0xbddb0b57be1242a5U, 0xbea55b6abd05ce48U, 0xbda0905ebdcef2acU, 0xbd95b8ffbcd4d210U,
  0x3da51db33cbfccc8U, 0x3e1ad284be0d94e9U, 0x3d8eb308be516dbfU, 0xbb274ba5bd322156U,
  0xbe11d7cbbe295fcbU, 0xbdc3ef81bd7ff846U, 0xbde1cdb1be0a5944U, 0x3ddd488ebdccfc9cU,
  0xbcc32db0be89b194U, 0x3a87dcffbe3aae5fU, 0xbdbde619bad9e0ffU, 0xbe2b3546be3b6431U,
  0xbd349fa3be66fbfbU, 0x3cf7cd23bc84038fU, 0xbccf79873c91ddffU, 0x3dfdc168bcc6bdd8U,
  0x3c8e63be3a71073aU, 0x3d4d23ac3cdb977bU, 0xbd99d851be73b1a5U, 0xbdde9f393e01894dU,
  0x3dbec3ff3d8e4338U, 0xbe14f0e53ce56713U, 0x3e03cc613e0f3b36U, 0x3cb3fd9b3e4247c0U,
  0x3da413163dc5ffccU, 0xbc9fa101be1230edU, 0xbd1ec8963dd2958fU, 0xbdcc0328be148728U,
  0x3df296313bb51eb5U, 0x3e3a8ff33ddb0c8aU, 0xbd79bdac3b5a33d8U, 0xbde04f4b3d173dc2U,
  0x3dcaf9dfbdfba6e2U, 0xbdef2c7ebc8441feU, 0xbdbb4ccf3b1fb14aU, 0x3d7c2c583df76cd8U,
  0x3dc1855f3dc3c583U, 0x3d994b5d3c87aae1U, 0x3dea5de6bc9ddd4aU, 0xbdc080c53d920996U,
  0x3dab58bc3be26fa0U, 0xbcf2e528bdfaba6cU, 0xbda02d8fbd5f3729U, 0xbe1bd47b3dc95d2fU,
  0x3cb66f5fbe34ec1eU, 0xbe7814773d85e164U, 0x3d9cddaebe07d111U, 0xba60dbbf3db4d08bU,
  0xbd27fdd9be354c9aU, 0xbc9201edbbbb253eU, 0xbc762c25be061529U, 0xbddf2a6cbdb64194U,
  0xbde90640be179279U, 0xbd873d2ebbab04a0U, 0x3d5bce4abe695104U, 0x3cb94f203da96e9fU,
  0x3da6a143be619a3fU, 0xbd285c2cbe3ec78bU, 0x3ce22c033d3eb176U, 0xbe5b8ba8bdc6d531U,
  0x3cc5c57ebe0210bfU, 0xbceaeca1bd015cf5U, 0xbceba175bb33d794U, 0x3d8a222dbce1b04fU,
